  t
h e
  a
  s
  w
n d
 t he
e d
  b
 t o
 a nd
  h
  f
i n
  T
 w a
i t
r e
o u
  d
  l
  c
  p
a y
  m
e r
 wa s
o m
 T he
  he
i s
  n
o n
a r
l l
 s a
i d
i m
 h a
  S
a t
o t
in g
  g
a n
e n
l e
o r
e t
a m
  it
i r
  H
 t h
 The y
i g
i l
  in
 H e
 p l
  "
o w
r i
u t
v er
  u
p p
it h
 pl ay
  r
 w ith
 sa id
e s
 d ay
o o
O n
  o
  y
 he r
k ed
  I
 s t
 S he
l d
 h is
 b e
k e
c e
 T im
  e
n t
 b ig
c k
ver y
 y ou
  on
u n
 ha pp
  L
e nd
il y
a ll
 n ot
 d o
 u p
 l i
ri end
 the y
 f riend
v e
 ha d
he r
 wa nt
a d
 w e
  M
 o f
  B
it t
s t
s e
 happ y
en t
' s
 m om
 sa w
On e
 th at
 s o
  very
ou ld
 f or
 s h
itt le
 l ittle
 t im
  k
ou nd
 n am
c h
 tim e
 L ily
 s he
. "
 nam ed
 n e
 s m
 the re
 b o
! "
 we re
 T om
T he
e l
v ed
 b ut
  is
 want ed
ou t
 I t
 w ent
 friend s
 a n
a l
h t
u g
id e
r y
om e
 to o
 w h
ir d
a ke
On ce
 b ird
t er
 l o
u e
 he l
 d id
 l oo
 a ll
 up on
i ll
 hel p
 to y
 f un
  j
am e
o re
g et
r a
  re
u r
 do g
 a s
 a t
get her
 b a
l y
i nd
 s e
  A
 c at
 to gether
 t re
a x
oo d
t ed
 r o
i c
e c
 the ir
a in
 b all
 c an
 a re
 m an
 h im
ar k
 the m
 c ould
 play ed
 M ax
 f r
ar d
 k n
 sa d
 g o
w ay
 l e
he d
 bo y
u m
' t
he n
? "
 c l
 tre e
 st ar
  out
 g ir
u l
 lo ved
 ha ve
 gir l
 ba ck
 S ue
ot her
h ing
 f ound
 loo ked
 s c
m y
 s p
ou g
on e
 m e
 p ark
on g
ow n
 B ut
r ound
a re
s ide
om et
 w ould
 li ke
 be c
p ot
 star ted
el t
 f a
f ul
 l a
 c ar
 se e
 f elt
 li ked
e ll
 a g
 s ay
o p
 c ame
 s omet
ig ht
 S am
oo k
  One
ou se
 S pot
 n o
 ne w
 sm all
i a
 as ked
Y ou
ar ed
il ed
o b
ad e
 a l
 g ood
i ce
  W
ri ed
ing s
 m a
 p ut
 sm iled
 w or
s s
oug ht
 b r
es t
d d
  other
 m ake
 m ade
 somet hing
 a way
 wh at
ar n
en ed
 h ome
 d own
 fr om
 e x
 ag ain
 m u
 r an
 play ing
 s w
 B en
is h
 f ind
t y
 c o
 wa l
  J
 la ug
 th ought
i le
 h ouse
 a round
 f e
u c
 e very
 toy s
 f l
 say s
 w ill
 too k
 m y
  F
i ck
i f
 s un
re t
 M ia
 t a
 le arn
 w hen
k ing
 the n
 sc ared
 li ved
 bo x
 p u
u ck
n y
 p o
 s ome
u re
 you r
um p
 c h
, "
 kn ow
 l ot
i e
pp ed
a ch
 th ings
 a b
e p
 p r
  You
uc y
an t
ot h
it ed
  D
u st
T h
 t ried
ou d
 g ot
 wh o
q u
f ter
 kn e
 d ec
 m ore
 g et
T im
 in t
 h ug
g e
L ily
 an y
b le
a s
is t
all y
  v
a u
ar a
 p e
 ab out
 M om
it e
 wa ter
 man y
 L ucy
 ro om
 B ob
nd er
a ve
â 
 p ret
an k
a p
 d ad
 c are
 ex c
 r ed
 kne w
 S o
au se
 s l
 loo k
  E
 laug hed
 p ic
 learn ed
f e
er s
 o p
 r un
 f ish
id ed
 bec ause
 e at
 to ld
 fe el
 b l
 dec ided
ur p
The y
 th is
 s or
 j ump
 g ra
 bec ame
in k
i ve
 g re
ou s
 l ong
 int o
u dd
 on e
T om
 out side
 A nd
 h o
 b est
o g
 exc ited
  ke
Y es
 sh ow
 b oth
a ce
es s
 in side
is e
 u n
 to w
way s
 fa st
 al ways
 b u
 c a
in y
 sor ry
g ed
 ro ck
 n ice
 m o
 mu ch
ou r
urp r
 st r
is ed
 s urpr
 o ld
 b ook
 a m
B ut
 t ur
 s k
v en
 u nder
 th an
le w
 did n
 c le
 pret ty
 e ach
s ed
in e
b y
 h ow
 l ist
 g ave
 cl o
g ry
 ha nd
W h
im al
 t r
 k ind
 an imal
  en
 st or
  or
 wal ked
o ll
i on
 happ ened
a se
n a
f f
et ter
 ne ed
at e
 j ust
l or
f t
 t ake
 f ood
he re
v ing
 c ake
k es
 wa t
 ne ar
 d an
c hed
 ma g
 f i
  ide
 b ug
  if
 it s
 f ly
op le
e m
 ne ver
 cle an
r o
 ide a
 animal s
r om
ec i
 pe ople
 S ara
 t ry
 b etter
 T h
ig h
 W e
eci al
 sp ecial
 sk y
re am
 E very
m ore
 any more

 

 t w
 lot s
 co lor
udd en
 b y
 H is
 fl ow
r ow
 sh are
 f lew
 do ll
 tur n
 surpr ised
 f ar
 do or
 c ome
 H er
 lo ve
udden ly
 e nd
e x
b b
 l et
u ff
L et
 sh iny
 re ad
 h ur
 care ful
C an
 cl im
  qu
 p a
 mag ic
 clim b
 be ar
 a fter
r m
or t
 he ard
n na
 hug ged
Th ank
 s n
v es
p ec
 d on
a k
 pic ked
 k id
 e ven
 b ad
d y
 ha t
 f am
 br o
uff y
p l
 list en
 a pp
M om
 t ra
 st ill
 h ard
 g round
 than ked
 l oud
 kid s
il d
  P
 t e
 hur t
 g l
  im
i z
' m
 w ind
 op ened
 fr og
 c om
l f
ill y
 r a
 e ver
 The n
 I n
g er
 stor y
x t
u ll
b er
 sa fe
 r ain
 of f
 ne xt
oo l
 sl ide
k ay
ard en
 g arden
 f ore
 c ry
 F rom
 o ver
 jump ed
c t
 fam ily
s h
pec ted
 h igh
um my
le ase
ex pected
 wh ile
 un expected
N o
I t
A s
 g ive
 wa y
 tow n
 pr oud
a ck
 an gry
  R
l uffy
he s
 th re
 t al
 str ong
 st ick
 c all
 u nt
 sh ould
  K
oug h
n ing
an e
 le a
 be a
p t
 m or
 c he
ut i
 unt il
 st ay
uti ful
i p
 sm ile
 he ar
 happ ily
 bea utiful
b e
 n ow
 W hen
t ure
 p ar
ir st
 th ink
 po nd
 gre at
itt y
a nd
 wal k
 bl ue
 S ally
 L et
 so ft
 show ed
 p ain
 im p
 fore st
 c u
 F luffy
  z
 wat ch
 tw o
 cat ch
 m et
 ha s
 flow ers
 every one
 d e
The n
o y
H e
 car s
 d ra
 b re
dd ed
 y ell
 re m
 pu ll
 op en
s o
i es
W hen
N ow
 at e
 al so
oll y
m a
a ir
 f ell
Th at
 w here
 pl ace
 pic ture
 call ed
 y ummy
 st o
 far m
 app le
ir ed
 wa rm
 sun ny
 help ed
 gre en
ar y
an ge
 wor k
 ke pt
L ook
 lo st
 K itty
 A nna
ay be
 y ard
 u se
 s qu
 hand s
 f irst
t h
 st ore
 me an
f ore
 sa t
 ag re
v ent
d ay
 w r
 no dded
 a d
un ny
o on
is hed
e et
 sto pped
 s ound
 ha ving
 fi x
 b ed
l ed
 u sed
 ke ep
 g ame
 W h
 A my
â 
â 
u it
le ep
 t ired
 p at
 no ise
 g i
 d if
 be fore
 D o
re ss
m an
 th ing
 sw ing
 sh o
 ho le
A fter
 b ra
ck s
H i
 r ight
 cl a
z z
 wor ked
 to p
 m ouse
 color s
 as k
 J o
  our
u s
ke y
a ge
W e
 w o
 u s
 be ing
oll ow
 so on
 s ing
 o kay
 m ess
 imp ort
 bo at
ug ht
o l
im es
c ed
 st op
 s ong
 mor al
 he ad
 bird s
  C
s er
k en
fe re
em ber
S he
S ara
 t ri
 sa nd
 re al
 li on
 import ant
 fl o
 dif fere
 d uck
t ing
is y
at ion
at her
 turn ed
 mom my
 f ollow
 e y
  G
ic y
i ed
g an
 s leep
 m on
 l ad
 h un
 go ing
 fa ce
 c ried
  Now
u ch
st le
 wa it
 p ick
 f in
 differe nt
t le
t hing
se lf
 wor ry
 t all
 par ty
 d r
  â
r ay
 sh ared
 laug h
 friend ly
 for g
 fa v
 could n
 J ane
â 
e ar
 rem ember
 r ace
 fr uit
o c
B en
A t
 c ook
 br ight
 agre ed
o x
o om
 sw eet
 k it
 h ot
 feel ing
or n
j oy
ell o
c hen
Wh at
S am
H ello
 sm ell
 sh out
 p lease
 kit chen
 ey es
 do es
 cu ri
 book s
 ba g
or ite
bb it
D on
 h ill
 fav orite
 curi ous
 co ld
ow l
h n
M ax
 yell ow
 tr uck
 ta st
 ta il
 r u
 Th is
ut e
 other s
 f ull
 en joy
 clo ser
 bro ken
 bra ve
  ri
ig n
 thre w
 ro ll
 loo king
 j o
udd y
ap er
 wa ll
 tre es
 sw im
 he re
 gra ss
 flo or
 dra w
 Tim my
ar ing
W ow
 hun gry
 d in
 be h
  own
n g
el y
e b
at h
a isy
 wal king
 w et
 ta ble
 st e
 be gan
 ad vent
 M r
z e
i x
S ue
 re a
 A ll
p e
ou nt
by e
 ra bbit
 qu ick
 mo ve
 ma king
 d ir
i ke
 w ood
 se es
 need ed
 h id
 gra nd
 gi ant
 g r
 fun ny
 b unny
 a ir
 B uddy
  Can
re l
S uddenly
M ia
 somet imes
 pret end
 n ight
 h op
 g row
 fi re
 fa ir
 D ad
o ice
in s
 pain t
 dan ce
 b ot
i ous
 wat ched
 tal k
 rea ched
 pu s
 p aper
 lea ves
 bu ild
 an other
 Th at
d er
a ss
 p i
 ex pl
 b it
 J ack
 A s
c le
a g
a ble
 sp l
 m ix
 m at
 look s
 al one
as ure
a z
Wh y
 v oice
 tow er
 run ning
 pull ed
 d is
 clo se
 ch air
 ca stle
 advent ure
w here
i ent
 wa g
 st uck
 sn ow
 sl ow
 read y
 quick ly
 pl an
 climb ed
 c re
 S uddenly
 Mom o
 wh ite
 tra in
 ma kes
 good bye
 dan ced
 br other
 big ger
pp y
S o
 t ell
 s illy
 n est
 m is
 ho ld
 help ing
 farm er
 c ool
ic ed
 wa ved
 try ing
 lad y
 j u
 g one
 do ing
 cla pped
 but ter
 bl o
out h
ed dy
 re pl
 re ach
 pr om
 p er
 mom ent
 m outh
 m ed
 li kes
 le ft
 c on
 ba by
uck y
t on
p h
ou p
on ely
n er
ir rel
at er
J o
 wh y
 squ irrel
 mon key
 ma il
 list ened
 l onely
 jo in
 g u
 bro ke
 am az
ec t
 re st
 gl ad
 d ress
 d el
 butter f
 bre ak
 b ike
 D aisy
r ough
bb ed
O h
 wor d
 w he
 re l
 m ar
 d ream
 d one
 be l
 L e
 Every one
st er
or d
o s
 wa ited
 th rough
 t iny
 p ig
 l ess
 f ight
 e le
 ch ild
 beh ind
 A fter
a c
 want s
 think s
 surpr ise
 m ight
 flow er
 f re
 d ark
ow er
as h
Th is
A nna
' re
 s et
 on ly
 la nd
 j ob
 forg ot
 c ra
 bot tle
en ny
 shout ed
 picture s
 lea f
 din ner
 c ream
 any thing
  ice
u b
ri es
r ed
er ed
 to uch
 pus hed
 g ent
 butterf ly
 a rm
  Z
ro om
one y
ll a
 under st
 sw am
 sh ap
 se en
 se c
 repl ied
 r ide
 not iced
 happ en
 f all
 dir ty
 com ing
 ca nd
 blo cks
 ball oon
s k
iz z
il a
a v
 wo nder
 th ank
 some one
 per f
 nam e
 mu st
 less on
 f ill
 d ro
 b or
O kay
H er
 w on
 thre e
 sp ot
 he ld
 gra bbed
 follow ed
 enjoy ed
 a c
 Jo e
un e
ec es
I n
 wind ow
 pi eces
 l ight
 fast er
 every where
 en g
 doll s
 color ful
 c ow
 but ton
 b lew
 b ath
 The re
 M aybe
u p
m b
eb ook
S pot
D o
 wr ong
 v is
 st and
 se a
 pl ant
 p ink
 p en
 not ebook
 ke y
 g if
 fly ing
 br ought
 a nt
 So on
 F in
 B l
s y
pp ing
pp er
av y
 wood s
 w ished
 w in
 th row
 stay ed
 run s
 rock s
 ro b
 pu zz
 p et
 l ake
 d ri
 bu y
s ic
iz ed
dd le
an ce
 sec ret
 s it
 remember ed
 pu ddle
 or ange
 mu sic
 ho pped
 ha ir
 cre at
 com p
 be en
 a r
r ot
ie ld
d e
c ome
 wor ld
 r ound
 puzz le
 f is
 eng ine
 de ep
  O
le ss
itt en
 s ure
 rob ot
 re c
 prom ised
 med al
 h it
 gif t
 Le o
i et
Wh ile
L ucy
 y ear
 vis it
 tre at
 tal ked
 sp in
 sc ream
 re ally
 qu iet
 po l
 grand ma
 fre e
 fair y
 f an
 d ry
 In side
 A t
q ue
ot hes
itt ing
her man
ar t
Jo hn
 y og
 pr in
 pa w
 p ot
 k ing
 ju ice
 h or
 f ur
 f o
 expl ore
 cl othes
 Tom my
m ma
g le
e ad
b ox
M aybe
 w ise
 v ill
 to day
 tast y
 t ight
 star t
 sh in
 roll ed
 ro pe
 fl ute
 fis herman
 ca ught
 ask s
 Bob o
ph ant
or m
e e
b ow
 underst and
 turn s
 s ign
 rain bow
 ma p
 m ine
 h ide
 fin ished
 ele phant
 e l
 b uck
 b ite
 Wh at
 Bl ue

  
ull y
s et
o st
i ble
f ully
ct or
c hes
ard s
" .
 y es
 we ll
 w ings
 sw ings
 str ange
 sh aring
 sc ary
 pu sh
 n a
 mor ning
 hug e
 he avy
 el se
 b owl
 b arn
 T o
  owl
un ch
is s
c ked
 with out
 w ish
 tre asure
 sm o
 s itting
 mat ch
 fe w
 cl oud
 br an
 apple s
ro ss
m ing
m e
ld er
 w ra
 st one
 sn ake
 shap es
 sa me
 s na
 pr une
 perf ect
 p ie
 n ap
 hear t
 f it
 dr ink
 c ount
 B illy
ump y
ray on
i ver
b ble
F rom
 we l
 sing ing
 po in
 le ave
 k ite
 fill ed
 cry ing
 c rayon
 c orn
 buck et
 Mom my
 Jo hn
oo p
izz a
il k
g g
B ob
! â
 stor ies
 sm art
 sa ng
 s ide
 pat ient
 pa ss
 p ower
 o ven
 hor se
 e gg
 day s
 d i
 clo sed
 care fully
 cand y
 bug s
 amaz ing
 ab le
 E mma
sk et
p es
c y
J ust
 wel come
 vill age
 t eddy
 shin ing
 s is
 p urp
 mo ved
 m ilk
 m ad
 l unch
 k itten
 in c
 c ute
 c her
 ba sket
ra nd
o nd
n ot
H is
 wo ke
 sa ck
 s uddenly
 m other
 m in
 j et
 gl ass
 ex p
 del ic
 car rot
 can not
 b ar
 M olly
c ing
am es
He y
 tw ins
 to oth
 th in
 smile s
 sis ter
 sho es
 pie ce
 no se
 mu d
 laug hing
 him self
 feel s
 en ough
 dro pped
 con t
 cl ap
 L ila
 E lla
ve l
ri ll
itt er
i pped
ger ous
f ish
en ch
at ter
an o
a ur
a le
 wag ged
 tur key
 st re
 sp icy
 sound s
 pe ace
 gr umpy
 get ting
 g ames
 f ather
 eat ing
 dad dy
 c ri
 b an
ught y
st ead
our se
le x
it ch
f u
c o
. â
 yog a
 ri ver
 real ized
 purp le
 p ile
 l ate
 j e
 g em
 fin ally
 f ox
 e ar
 dan gerous
 c ourse
 D ucky
z y
un k
un a
um b
s qu
ra ct
r at
p a
ount ain
n ed
l ing
ir t
ir r
en ce
ell a
e re
as ed
 z oom
 word s
 sc ar
 s oup
 ro ad
 re s
 po em
 p ool
 p izza
 p ers
 li ving
 gent le
 f ield
 duck s
 dog s
 cu p
 c ut
 bo ss
 b ench
 Sara h
th y
squ it
squit o
ou n
ir cle
in ed
in a
ie ve
e y
e ared
c es
are nt
ad ow
a f
S ally
O f
G ood
 whe el
 whe at
 we ar
 tr ou
 st u
 snow man
 smell y
 scar f
 ne igh
 mo squito
 magic al
 j oy
 in v
 f il
 f ake
 de er
 boss y
 be ll
 be ach
 Th ank
ur se
u ed
re n
r ob
our n
oc ked
le t
i er
et er
c ess
b o
ar p
am p
F in
' ll
 tri es
 te ach
 ta king
 sh ook
 sh arp
 pa st
 p in
 p arent
 land ed
 j ourn
 j am
 hid ing
 e a
 dra g
 do ctor
 d es
 cont in
 clo ck
 che w
 bath rob
  -
u nt
t o
oo f
is k
fu sed
am ond
 year s
 wor ried
 up set
 tri p
 stre et
 st ret
 sl id
 s uch
 own er
 neigh b
 m um
 la st
 j ar
 hat s
 gre w
 fe ed
 every thing
 drag on
 di amond
 dec or
 cook ie
 co ver
 bel ong
 b ake
 P lease
 B ella
re w
or s
o ve
le s
iz e
ck et
al m
P lease
O K
Mom my
 v ase
 tr ump
 ta kes
 stor m
 st ri
 spl as
 sn ee
 see m
 ro ar
 put s
 na ughty
 mo st
 me asure
 m oney
 li ve
 lad der
 kn ocked
 hold ing
 h oney
 go es
 fa ces
 e as
 dri ver
 d ig
 contin ued
 co in
 child ren
 br own
 bathrob e
 b ark
  ign
s w
p et
isk ers
is a
il ing
i re
i ch
er ri
ch ool
am a
S t
Fin ally
 z ip
 wr ite
 wa nd
 trump et
 so ld
 p re
 on to
 not hing
 not e
 no d
 mon ster
 me et
 le g
 j og
 hop e
 her self
 h ig
 fix ed
 cri b
 com es
 car pet
 bo ot
 bel ieve
 ban an
 an sw
 T r
 Bob by
 B e
  ve
  ent
th day
s p
os aur
o se
n et
m or
ir thday
ie ved
ick en
i ant
es e
e my
am ed
S oon
 yell ed
 tr ue
 t erri
 sw ord
 she ep
 se ar
 s el
 pers on
 pat h
 o b
 n ation
 mix er
 mail box
 l ucky
 h on
 gra b
 for get
 fe ather
 delic ious
 clean ed
 ch icken
 bl ack
 be e
 as h
 M an
 C h
  On
ug g
s es
lder ly
it ing
ep end
d en
al thy
a zz
B e
 te a
 squ are
 smo oth
 smell ed
 sh r
 sel fish
 s our
 s chool
 r at
 pe pper
 mis sed
 m ist
 li fe
 in stead
 im ag
 hig her
 hid den
 help ful
 h oop
 fil m
 fight ing
 e lderly
 de ad
 dan cing
 con fused
 c ircle
 c alm
 build ing
 bu bble
 bran ch
 bor ing
 be ak
 b al
 Wh iskers
 B unny
  '
w ber
ut s
u pp
rill iant
ra wber
ob le
oble m
o ck
mor row
irr or
ir it
eb ra
c c
c ap
bo ard
at or
M olly
A my
 z ebra
 tur tle
 tow ards
 to morrow
 terri ble
 tal king
 sh op
 s upp
 ru de
 pr oblem
 pl ate
 par t
 p ress
 p op
 p h
 n et
 my ster
 mis s
 m ot
 m irror
 love ly
 l etter
 hug s
 gent ly
 fe et
 eas y
 cl ub
 che ese
 ch ased
 care less
 car ry
 c ou
 bre ad
 b rilliant
 b itter
 b irthday
 at t
 app eared
 an g
 W ith
 P enny
 J en
 D on
  icy
om an
is es
g y
g ly
ere st
M y
 wonder ed
 who le
 wait ing
 wa r
 w oman
 str ing
 sp irit
 sna ck
 sleep y
 sh irt
 sh ake
 scream ed
 rel ieved
 rec ord
 ra g
 r ad
 pol ice
 pl ane
 peace ful
 p ract
 mom s
 mag net
 inc red
 gu ard
 fore ver
 expl ain
 ea ger
 din osaur
 creat ive
 cook ies
 ch ange
 ca ge
 bu sh
 br ing
 b ow
 b oun
 arm s
 ar ri
 ang el
 amaz ed
 adventure s
 a ct
 R emy
 I f
 G rand
us ie
pec t
ol ate
oc olate
m er
ll ie
it y
icy cle
er v
cap e
Tom my
L ater
J ack
? â
 tra ck
 swim ming
 star s
 splas hed
 spl it
 sp r
 sp o
 sho e
 sc atter
 r ise
 r are
 pu p
 poin ted
 parent s
 ne ck
 n urse
 ma ze
 long er
 int erest
 incred ible
 ign or
 ha lf
 gra pes
 exp lor
 dir t
 d est
 corn er
 cloud s
 cla ss
 cl oth
 ch ocolate
 bu sy
 bal ance
 b icycle
 as king
 ac ross
u zz
p ill
pill ar
ob y
m et
l ower
ir p
il ty
et h
est ion
erv ous
er ry
er pillar
el p
e ver
at s
ank et
an ger
D ad
 y arn
 wra p
 wor m
 wonder ful
 watch ing
 w is
 tast e
 ta p
 t ied
 ste ak
 st ream
 st ood
 spl ash
 sp e
 so ap
 slow ly
 sl ipped
 she ll
 she lf
 sa l
 s uc
 s il
 ro se
 ri ch
 r ot
 r oof
 qu estion
 po le
 p un
 p ow
 n ervous
 mu le
 me at
 mar ch
 m ama
 loo p
 lo ves
 kne e
 hop ed
 hon est
 hel met
 hear s
 h orn
 gu ilty
 get s
 forg ive
 fan cy
 f ool
 d ull
 d rew
 com f
 cher ries
 che ered
 che er
 cat erpillar
 ca ct
 c ard
 bl anket
 bar ked
 ash amed
 any one
 Wh y
 P olly
 Fin ally
 B ird
  es
w eet
ur ch
up id
ul ar
u ally
u al
ro y
re ad
n n
m ost
ip e
im i
ess ie
er os
er a
b r
ass ion
air s
af fe
a kes
Wh o
St op
L ila
H elp
 z oo
 we aring
 w ore
 w ide
 trou ble
 to uc
 te ar
 stret ch
 str anger
 st upid
 st ir
 spr ing
 sor t
 sh y
 sh ark
 see k
 rel ax
 r ough
 r id
 prin ce
 power ful
 paw s
 pat ch
 mo ving
 m ark
 lo se
 l ay
 journ ey
 interest ing
 in k
 h ar
 go ld
 gir affe
 f ountain
 dest roy
 decor ate
 creat ure
 comp assion
 cle ar
 ch urch
 can e
 cact us
 c r
 bu s
 b ur
 al most
 To gether
 S omet
 S ome
 M ary
 L isa
 J ust
 F red
y ard
us ual
um e
st al
oom y
oc eros
m ent
ll o
in oceros
ill ow
i ppy
i an
h ip
h inoceros
er t
at es
ar ge
a pp
 wag on
 wa ve
 w ild
 v al
 use ful
 un usual
 u gly
 treat s
 touc hed
 te ac
 ste pped
 spot ted
 sp ray
 song s
 sold ier
 so l
 sho ot
 se ed
 s ick
 s er
 r hinoceros
 po or
 po cket
 pi ano
 p ri
 p ir
 p illow
 p an
 no ises
 neighb or
 near by
 mot or
 mess y
 m op
 l arge
 gra pe
 gl oomy
 friends hip
 fool ish
 fl ame
 dro ve
 dis co
 dis app
 d ust
 d ug
 cry stal
 compassion ate
 ch an
 cat s
 car ried
 c omet
 bre ath
 bor ed
 banan a
 back yard
 a dd
 Z oom
 Tr ue
 T iny
 R u
 G o
 D olly
v ator
um ber
ul t
st ic
rawber ry
p ar
par ate
n ess
lex ible
ic t
i v
i que
h ost
er ce
er able
ce let
c ase
ac es
K itty
Jo e
H ow
 wor king
 was n
 ve il
 un ique
 thank ful
 teac her
 te le
 sw itch
 sp ark
 sh adow
 se parate
 sc ale
 sand box
 ru b
 rock et
 res pect
 pow der
 pol ite
 plant s
 pl aces
 pain ted
 n uts
 myster ious
 mis erable
 min t
 mat ter
 lo ck
 li ves
 k iss
 k ick
 imp ress
 he llo
 gu ess
 gi ves
 g un
 g host
 fo ot
 fi erce
 f lexible
 f ing
 explor ing
 ele vator
 dec ide
 crayon s
 cou ch
 bra celet
 book case
 beh ave
 bec ome
 balloon s
 arri ved
 answ er
 a unt
 T weet
 T V
 S usie
 Man y
 L una
 J enny
 J ake
 H ow
  ind
  No
um sy
ul u
ter n
ss ed
sh ine
p ty
p le
ot ter
ol i
o ppy
n own
mb re
mb ar
mbar ra
m pty
k nown
iss ors
i o
i b
et e
er y
e ze
cc oli
ate ful
al k
a il
 z i
 would n
 wh ale
 un known
 u mbre
 te eth
 ta ught
 sun shine
 smo ke
 sh ut
 seem ed
 sear ched
 se ll
 sc re
 sc o
 sc issors
 sand w
 sal ad
 sa ved
 sa il
 ran ch
 rad io
 prom ise
 press ed
 pick s
 pat tern
 pa ck
 p ed
 mo v
 mix ed
 le ather
 le an
 l ine
 l amp
 it self
 it ch
 ho se
 gr oup
 gr ateful
 g ather
 fr ame
 fl ag
 f ence
 es cape
 e mpty
 e mbarra
 dr ank
 d ist
 cl umsy
 cl ay
 cher ry
 c e
 bro ccoli
 bran ches
 ba nd
 b one
 ad m
 a f
 The ir
 Somet imes
 S t
 R ina
 O llie
 M imi
 J im
 J ill
 D an
 C ome
 B uzz
 A nn
  otter
vent ually
ut om
utom ob
utomob ile
ut es
un gle
t ur
t om
rat ed
or k
ol c
olc ano
l ves
l ass
lass es
izz y
in al
ig inal
ig er
ig ent
if f
id ent
ia ble
ht ray
g lasses
g ing
epend ent
ell igent
el ery
an gle
a ff
Sara h
F luffy
 wra pped
 we ak
 was h
 wa ke
 v olcano
 umbre lla
 tra p
 tow el
 th irst
 te am
 t em
 sun glasses
 suc cess
 strong er
 stri pes
 stick s
 sp ort
 snee ze
 shap e
 scre en
 sa iled
 re tur
 re g
 pu ppy
 po st
 po ked
 play er
 ped al
 pe ar
 p ay
 or iginal
 or der
 open s
 no isy
 mist ake
 min utes
 make up
 m aybe
 li br
 l ater
 jump ing
 j unk
 j ungle
 inv ited
 int elligent
 ind ependent
 ha ng
 ha m
 h um
 grand pa
 g ig
 g ear
 for th
 fo lder
 find ing
 f ig
 f est
 ear th
 dr op
 d izzy
 cra ck
 co st
 cle ver
 c ross
 c oo
 c elery
 bot tom
 ball s
 as htray
 a utomobile
 T eddy
 P ete
 L ulu
 L iz
 And y
 A lex
umb led
ul if
ulif lower
stle ss
sp it
spit al
se um
ra id
ous es
op h
l ock
iv al
is sed
irp y
ar l
a king
Tim my
S ure
C ome
 you ng
 y ield
 tra sh
 tr ust
 thirst y
 tem ple
 tast ed
 ta sk
 ta g
 t ie
 st ation
 squ ash
 small er
 sh ine
 sa ve
 s end
 ru ined
 rel iable
 re stless
 prin cess
 pri ze
 pig s
 ph one
 or gan
 not ice
 nod s
 mu seum
 mo d
 mar ry
 m ummy
 light s
 libr ary
 li p
 leg s
 le ad
 la w
 la b
 know ing
 k issed
 ignor ant
 ho spital
 her o
 hard er
 ham mer
 h ouses
 g ate
 fin ish
 fest ival
 feather s
 f at
 explain ed
 exc iting
 embarra ssed
 disco ver
 del iver
 cow s
 cover ed
 co ll
 co at
 ch ar
 car t
 ca uliflower
 c ries
 bo dy
 b ought
 b at
 af raid
 ac c
 Z ara
 To day
 M y
 J erry
 Dad dy
  N
w el
ust rated
un g
ul b
ug h
se lves
que en
our s
og n
m on
k y
k in
ion ary
in king
in ess
il ot
id ge
ict ionary
ic ine
he lf
g ust
g round
er as
eras er
e k
at ed
am era
M e
G rand
E very
D aisy
B illy
 wh ist
 we ep
 w ing
 val ue
 v i
 to ugh
 tim es
 stu dy
 stop s
 ste al
 stand ing
 sc rat
 ro de
 rem ind
 rec ogn
 read ing
 re p
 ra ced
 r ing
 plan et
 past a
 pass ed
 p our
 mov ie
 might y
 med icine
 me ant
 me adow
 m ill
 lot ion
 le mon
 ju icy
 join ed
 je wel
 j olly
 hun g
 help less
 he althy
 hair y
 gl ow
 g ray
 fur ry
 fr ight
 fe ar
 exc ite
 dri ve
 dis gust
 des k
 d ictionary
 cra w
 coo ked
 comf ort
 co ins
 clean ing
 cheer ful
 char ming
 chan ged
 carrot s
 c ave
 c amera
 bubble s
 bu ll
 books helf
 ba ld
 b ulb
 ar row
 app l
 al ert
 acc ident
 a v
 T oby
 S n
 P oppy
 Ch irpy
 B ill
  queen
  eraser
z ed
y ing
us ia
usia stic
ur t
ur ing
ur ed
uit ar
ub by
se ct
ra g
rag ile
pp ers
ow man
ot e
orm al
or ry
om es
ol in
ll y
le pt
is p
ir on
ink y
ic ked
h usiastic
g led
f ted
en u
en a
d le
d ge
ctor y
ch air
c il
b led
au d
at ue
a st
a ged
W here
S orry
M um
J ane
He re
 wr ote
 wis hes
 wh isp
 wall s
 wa ff
 w ine
 vi olin
 underst ood
 tri angle
 tr ade
 tell s
 st umbled
 st rawberry
 st ep
 st atue
 spin ning
 sp ill
 sna cks
 sm iling
 sil ver
 show ing
 she et
 seed s
 sa f
 s ur
 s que
 s lept
 s ize
 s ink
 rid ing
 ra ven
 pretend ed
 pr o
 poin t
 pen cil
 par rot
 pain ting
 pain ter
 p ump
 off ice
 o k
 na il
 n ormal
 mod est
 me as
 mark et
 man aged
 m ountain
 m enu
 live ly
 li cks
 letter s
 le ash
 la zy
 l ying
 k icked
 jump s
 in sect
 ho pping
 happ iness
 grow ing
 g uitar
 g en
 fright ened
 fr ustrated
 fo ld
 fing er
 fig ure
 fam ous
 fa ctory
 f ragile
 f our
 f ine
 ent husiastic
 end ing
 en v
 disgust ing
 d ish
 cost ume
 ch ubby
 ch alk
 ce iling
 boun ce
 bl ow
 bed room
 arm chair
 appl aud
 ant s
 al ong
 agre e
 a dded
 Sn owman
 O l
 M ark
 J azz
 Grand ma
 F r
w ard
vel op
ut er
ul ie
t en
ra ge
p ort
ow ed
oup le
on t
on es
n ic
l ow
l er
il t
ig hed
id dle
he w
ex t
et le
er ous
el s
ed ient
ead y
cy cle
co a
c orn
bb on
b in
ation s
as on
and y
ac he
a ver
The ir
M ummy
 we althy
 way s
 wag s
 w itch
 trou bled
 tri ck
 them selves
 th ough
 sun f
 ste el
 ste am
 st airs
 sp oon
 sp ent
 sk in
 sho cked
 sh ade
 se at
 say ing
 s ugg
 s on
 s ent
 ri ce
 ri bbon
 reg ular
 qu ar
 pun ish
 pre s
 pract ice
 pop corn
 po pped
 play ful
 pir ate
 pic nic
 pe ppers
 pa le
 p ipe
 on ion
 on es
 ob edient
 o ats
 need s
 mu sh
 motor cycle
 mo ves
 mess age
 m iddle
 li ft
 laugh s
 l it
 impress ive
 imag ine
 hot el
 h omes
 gi ving
 gen erous
 fre sh
 fr ont
 ex am
 env ious
 enjoy ing
 en velop
 dra in
 dr um
 dist ant
 des ign
 de af
 d ough
 cra b
 comp uter
 co coa
 card board
 ca bin
 c ouple
 c op
 c one
 c ards
 c amp
 bu ry
 bu ilt
 brother s
 br idge
 boy s
 bor row
 be etle
 bath room
 bark s
 b et
 as leep
 You r
 S h
 R ob
 R ed
 Mr s
 M um
 K ing
 G ive
 E ven
 Bird y
 Be aver
 B essie
  3
y d
yd ia
w ork
w as
was her
ul er
pl ace
op us
ol a
o ver
l id
lid ay
j ect
in ted
in es
in ary
ic ult
ib i
he ll
h a
g u
g es
f icult
end or
el come
e on
dd y
d inary
ct opus
ar ian
al ous
T o
S ee
M r
L ittle
 w ip
 v endor
 v an
 us ing
 thin king
 t una
 success ful
 start s
 st aff
 spo ke
 spe ed
 sp read
 sol ve
 sleep ing
 shr ink
 should er
 sho vel
 sh iver
 se al
 sc are
 sandw ich
 s ighed
 ro ared
 retur ned
 rem ove
 r uler
 quar rel
 qu it
 pus hes
 pu pp
 prin t
 pres ent
 pract iced
 pr ot
 pe bble
 p ins
 organ ized
 or dinary
 on ce
 o il
 o ctopus
 mush room
 mu ddy
 miss ile
 me al
 m el
 li fted
 le ak
 land s
 l ed
 kind ness
 journ al
 je alous
 j azz
 hur ry
 hum ble
 ho liday
 h ours
 gl itter
 gather ed
 g as
 for ward
 flo at
 fl uffy
 fire place
 f ive
 excite ment
 egg s
 e ventually
 draw ing
 does n
 dish washer
 dif ficult
 delic ate
 cr own
 coll ar
 co zy
 co l
 class room
 chicken s
 che st
 che ap
 castle s
 c ord
 blo ck
 belong ed
 bar ber
 b atter
 a p
 T ina
 T illy
 Sh aring
 R over
 P uffy
 P e
 L illy
 L ena
 Grand pa
 F ox
  iron
  U
y fish
y e
x e
ur ous
umb ers
u sh
u ce
s ive
read y
ract ive
pl ay
ph one
ot er
orm ous
op ard
oc o
o inted
n ger
n am
nam ent
in ked
in arian
ie w
ic hell
ichell e
i um
ht ub
he ad
get able
g en
eter inarian
et ty
ere al
epend able
en sive
ell yfish
ed y
c om
b all
at ient
a w
a it
Y um
W ell
The re
I f
B ye
A nd
, â
 your self
 your s
 yog urt
 wr iting
 wo lf
 whist le
 wh ich
 we ird
 we igh
 wall et
 walk s
 waff le
 w ink
 ve getable
 v iew
 v eterinarian
 tow ers
 the se
 tell ing
 tele phone
 ta pe
 ta ken
 t iger
 sweet ie
 supp ort
 sun set
 stu d
 stret ched
 st uff
 sp un
 sp ell
 smell s
 sk irt
 show s
 secret s
 sear ch
 sco oter
 sad ly
 sa ving
 s y
 s ight
 rot ting
 roll ing
 rabbit s
 pupp et
 pun ished
 pre vent
 pr ay
 poem s
 po ke
 pl ates
 ph ot
 perf orm
 p ilot
 off ic
 off ered
 n umbers
 n umber
 mist akes
 mail man
 ma ch
 m ind
 m elt
 lo g
 li cked
 learn ing
 lean ed
 le opard
 l id
 kn ock
 jo ke
 je ep
 j ellyfish
 inc re
 imp atient
 hole s
 hold s
 help s
 har sh
 happen s
 happen ing
 ha nger
 fruit s
 fr own
 fall en
 exp ensive
 en ormous
 en c
 dream s
 dream ing
 dream ed
 disapp ointed
 del ight
 d ependable
 cu be
 creature s
 cre ate
 comp let
 close ly
 cl iff
 che ss
 ch ase
 cand le
 ca se
 c ereal
 break s
 bre at
 belong s
 bat htub
 b ump
 att ractive
 al ready
 advent urous
 a xe
 W ould
 S oph
 R ex
 M ichelle
 L ydia
 C hew
 C at
 B ig
 B ibi
  

z ard
y al
w orm
v is
vis ion
up er
uper her
uperher o
un n
ug ged
uck ie
u be
st airs
r n
op l
oop ed
mb ol
m ined
le as
l ight
itten s
it her
is on
irr ing
in ation
ie f
id y
i kes
i est
gu in
g ie
f a
ex ture
eter mined
es day
er ries
er opl
er c
er ation
els ie
ce an
c a
ca stle
bb orn
ara ge
ar ry
all ey
ag gie
ad o
Y uck
W ait
R eady
F r
Dad dy
D id
Bob by
 zi pping
 zi pper
 wip ed
 weep ing
 we ek
 war ned
 v room
 v alley
 un lock
 tr unk
 to rn
 thought ful
 thank s
 th u
 tele vision
 te ase
 t ube
 t ire
 t idy
 t exture
 t est
 t en
 sy mbol
 sw ung
 stud ied
 stu bborn
 stri ke
 stick ers
 star ed
 st irring
 st age
 spo iled
 spe ak
 sp id
 sp ear
 sk ull
 sk ipped
 shout s
 shout ing
 should n
 sh ort
 sh ip
 set tle
 ser ious
 scrat ch
 sand castle
 s uperhero
 respect ful
 repl ace
 re f
 r ings
 pump kin
 prot ect
 pro v
 po ison
 play ground
 pig eon
 per m
 pen guin
 pack age
 pa ge
 p urse
 or nament
 op eration
 o cean
 nice ly
 new sp
 nam es
 n ur
 n avy
 music ian
 monkey s
 moment s
 meas ured
 mar ble
 mach ine
 lo yal
 lo ad
 li zard
 lea ving
 lab el
 l umber
 l ow
 know s
 j ail
 hurt ing
 her s
 head s
 h ook
 grab s
 gl ove
 girl s
 gig gle
 g arage
 free ze
 fl ies
 fast est
 fall s
 f ed
 ey e
 ex erc
 earth worm
 draw ings
 dr inking
 door s
 dis play
 d etermined
 cup s
 craw led
 count ed
 cla pping
 call s
 cabin et
 c udd
 c ap
 box es
 boun ced
 bo ard
 bl inked
 be nd
 batter y
 banan as
 ba a
 b ikes
 b erries
 any way
 answ ered
 ac ce
 a eropl
 Z ippy
 Wh ile
 Tr uckie
 Man ny
 M ittens
 J ulie
 In ky
 G ia
 E nd
 E lly
 C oco
 Bl oom
 B inky
 All y
  â
y m
ve led
us hed
t ra
st ick
s on
s ity
ri c
ric ane
ri age
p ed
oun ce
or ted
op s
ol og
o ld
n oon
n ight
m less
m ine
l oo
iver sity
is ing
in ce
im ed
ig loo
ig gy
i pp
i ence
i el
ha ppy
g est
ed ge
e ater
e ak
der n
ch or
ce ful
c u
bb ing
ax i
aur ant
au sed
at ch
as es
arl ie
ar ter
ag ers
ache l
a by
W elcome
O uch
L isa
H a
Grand ma
G o
. .
' d
 was hed
 wa ving
 w ool
 w ipe
 w ig
 vill agers
 v ine
 un ite
 un cle
 u r
 tw ist
 truck s
 tre mb
 tra veled
 tra vel
 tr ay
 to ur
 thu nder
 the ater
 tear s
 te as
 t ick
 t axi
 swing ing
 swam p
 supp ly
 stretch ing
 stir red
 st ones
 st ack
 spill ed
 sp ike
 soft ly
 so il
 so fa
 snee zed
 sn ap
 sm arter
 slid ing
 sl i
 sk ip
 sil ence
 shin ed
 shell s
 sco ld
 ru les
 ro d
 rest aurant
 res ist
 rep ly
 recogn ize
 real ised
 re ce
 rain y
 ra cing
 question s
 put ting
 pour ed
 pop ular
 pir ates
 perm it
 pe an
 pa ir
 pa id
 ob ject
 nur ses
 newsp aper
 need le
 mo dern
 mel on
 mar riage
 lip stick
 lip s
 kne es
 kind s
 inv ite
 incre ase
 in s
 hurt s
 hur ricane
 hill s
 he al
 har mless
 h unt
 h ive
 h ay
 gre edy
 grand son
 gra ceful
 gig gled
 gift s
 g ym
 g rill
 fire work
 fear ful
 f og
 excited ly
 ex tra
 end ed
 enc ou
 en er
 ea st
 do ve
 disapp eared
 de ar
 cri cket
 cra zy
 complet e
 col our
 ch ance
 carry ing
 cand les
 c ur
 c row
 bump ed
 bl ouse
 bit es
 big gest
 ba ked
 ap olog
 an chor
 am b
 agre es
 after noon
 aeropl ane
 adm ired
 accident ally
 ab ove
 a w
 a head
 Z ip
 W ater
 Sam my
 S andy
 Ru dy
 Ru de
 R ose
 R ich
 Pe pper
 P eter
 Ol ive
 N ext
 M ill
 In stead
 I s
 H op
 H ippy
 H arry
 Every where
 Dan iel
 Ch arlie
 Ben ny
 B ear
  igloo
  edge
y er
x u
xu ry
x ious
w s
w ards
ver se
v et
ul ance
ug sy
ug ar
u xury
ser ve
ro d
re eze
re ct
re ck
rawber ries
ra ce
r iger
riger ator
qu ake
pper y
os ie
ort able
or y
or ch
oo se
om m
omm end
om b
og gy
ng ue
m ed
m ble
m and
mand a
l p
l ies
l and
k a
iz es
ist ent
is ted
ion s
ile t
ic hes
i ves
i ka
g ue
ff ic
f ortable
f ant
f ace
es ted
em ember
el vet
dd ler
com fortable
cc er
bo dy
b by
arl ton
ar ia
al ph
ail able
ag es
ac ked
a pped
Yum i
Y ay
V elvet
P olly
N ot
Mom o
M ary
L e
J enny
In side
Grand pa
Good bye
G ive
E mma
' .
 â 
 y et
 wr it
 whisp ered
 whisp er
 war n
 w reck
 up stairs
 un p
 un happy
 un comfortable
 tri cks
 tre mble
 tra il
 tra ffic
 tra cks
 to ngue
 to ilet
 to ddler
 to ast
 tight ly
 thre ad
 th umb
 t ug
 sur face
 sunf lower
 sugg est
 st om
 st air
 sque eze
 spray ed
 spid er
 sor ting
 so ccer
 so ar
 sn iff
 sn eak
 sli ppery
 sl ip
 sl ap
 shr ugged
 sh one
 sh akes
 set ting
 ser ve
 sec ond
 sc rew
 sandw iches
 sa uce
 s ugar
 s udden
 s ir
 room s
 rep air
 ref rigerator
 rad ish
 r ushed
 r ug
 pus hing
 pup il
 puddle s
 pretend ing
 pr ide
 plan ted
 pin ch
 pick ing
 phot o
 pers istent
 pan ic
 pa cked
 p ort
 p orch
 op era
 ob serve
 o y
 o ak
 now here
 no sy
 no on
 neighb ors
 n one
 myster y
 met al
 mean s
 mar ried
 m ay
 m all
 loud ly
 loud er
 lion s
 let ting
 law yer
 la p
 la id
 l uxury
 k ay
 ju dge
 jewel ry
 is land
 inv it
 int rod
 ins isted
 in fant
 ide as
 hop ing
 help er
 hand ed
 gold en
 gl ue
 g ust
 forg ave
 follow ing
 fold ed
 fl ash
 fix ing
 fil thy
 feel ings
 f et
 exerc ise
 envelop e
 ener gy
 earth quake
 e ither
 drop s
 dress ed
 draw er
 discover ed
 destroy ed
 delight ed
 count ing
 cou rage
 cook ing
 comfort able
 comf orted
 colour ful
 co al
 cla ws
 che cked
 ch ases
 car ing
 c ity
 c ell
 c aused
 butterf lies
 bus hes
 bur ned
 bucket s
 breat he
 br ush
 br ings
 bl oom
 be ep
 bark ing
 b other
 b omb
 b le
 b ent
 av oc
 av ailable
 ar t
 ar gue
 any where
 an xious
 amb ulance
 air port
 again st
 adm ire
 act ing
 Z iggy
 Wh ist
 W ill
 Soph ie
 R achel
 O r
 M o
 M illy
 Le e
 L ook
 L ipp
 K ate
 J une
 J essie
 J ason
 It s
 He lp
 C ircle
 C arlton
 B ounce
 B etty
 B aby
  Velvet
  
 
z es
z en
y gen
x ygen
w e
we en
v ice
ut h
unn ies
ugg age
uff er
uc et
u able
t her
sh ion
s c
red ient
redient s
re c
rec i
qu are
ph in
p on
our ite
or se
or ill
orill a
or able
on ic
onic a
og a
o zen
o sed
ng th
m unk
m other
low ers
l u
l s
l phin
ke ep
keep er
k ins
it ched
ip munk
ing redients
ind a
ill board
if e
he art
h ouse
f ied
ess ert
er o
er ience
en ry
em ent
em and
ed s
ec ause
e a
d om
ce ed
c ient
b ies
at ing
ar i
al s
ain ed
aff le
ad ium
ac hes
a stic
Y oga
W ill
The se
T eddy
S h
P enny
Le o
L ola
J im
J ill
I s
Every one
E lla
B ugsy
B uddy
A re
A h
!" .
 z ero
 you th
 writ es
 wor se
 window s
 wheel s
 wat ches
 w ire
 w est
 vis ited
 val uable
 v et
 tw ir
 trust ed
 tri pped
 tremb ling
 tra pped
 tra ins
 tr uth
 their s
 th ose
 th ief
 th ick
 t ub
 t ip
 t ent
 symbol s
 sweet ies
 sweet heart
 sw eater
 supp osed
 sunf lowers
 sugg ested
 suc ceed
 stre ngth
 str ugg
 st rawberries
 st adium
 sque e
 splas hing
 spark ly
 spark ling
 spark led
 sp end
 sp ade
 sol ved
 so ck
 sniff ed
 snee zes
 shiver ing
 sh ot
 sh aking
 scream s
 scold ed
 scatter ing
 sc ooped
 saf ely
 saf ari
 s uffer
 s ince
 record ed
 rec ommend
 rea ches
 rain ed
 ra ise
 ra ft
 pull s
 prov ide
 proud ly
 pet als
 perf ume
 pen s
 pean uts
 pe e
 pe aches
 pass port
 paint ings
 pa ges
 p le
 p enny
 p ad
 old er
 offic ers
 o xygen
 o l
 no vel
 ne at
 nap kin
 n ine
 mouth s
 mo at
 meet ing
 mat ches
 mar ched
 ma ss
 loop s
 listen s
 listen ing
 lands cape
 l uggage
 kne el
 kn ight
 kay ak
 inc lu
 impress ed
 imag ination
 ignor ed
 ign ore
 hor ses
 he el
 he at
 happ ier
 hand le
 grand mother
 g orilla
 frown ed
 fr ozen
 forgot ten
 for k
 flash light
 fl ood
 fl ap
 fing ers
 fav ourite
 fall ing
 fa ucet
 fa shion
 f leas
 exp erience
 envelop es
 ent r
 encou rage
 ear s
 ear ly
 do lphin
 di rect
 d ive
 d essert
 d emand
 cut s
 cra s
 climb ing
 cl own
 circle s
 chair s
 ch ose
 ch oose
 ch ipmunk
 ch ain
 catch ing
 cart oon
 car ed
 bur n
 bright er
 boot s
 ble ed
 bit ing
 bet ween
 be es
 be amed
 ban g
 ba bies
 b unnies
 b illboard
 avoc ado
 app reci
 an cient
 all owed
 ad orable
 ac orn
 With out
 Whist ler
 W here
 U nder
 St rawberry
 St ar
 S unny
 S quare
 S m
 S ee
 R osie
 Ol iver
 M aggie
 Le ave
 L ola
 L ittle
 K elsie
 Jim my
 H orse
 H enry
 G ood
 G erry
 G ary
 Fr eddy
 Every thing
 Every day
 C ow
 A re
 A manda
  ingredients
  Yumi
â .
z or
z er
y le
y ear
w eb
w alk
ut ter
ust om
ustom er
us hes
unt ie
uc t
ub way
u ppy
u esday
u el
th ank
ter day
sc op
scop e
s it
s b
sb oy
ro scope
re e
r r
r ink
p ted
or ge
or al
on y
on n
onn ie
ob web
o ed
o cks
na ughty
n it
nit ure
n esday
n e
mer gen
mergen cy
m en
m are
mare s
lor a
le ton
l ter
l ook
l a
la imed
ke leton
iz ing
ist ol
is ty
ip s
ip es
ion a
im e
ig ers
id es
ict ory
ic roscope
i ved
h ood
g ers
fu se
ff ort
f reeze
eth ro
ent ion
ed nesday
ec ture
ec ted
ea h
e orge
d ed
ch oo
c er
az ine
aw k
av id
at o
at ely
at a
ara way
ap on
ap ers
an y
an es
all en
ack y
a ul
a ched
a a
You r
Y eah
To gether
T r
S usie
R u
P eter
O w
O ops
N ext
M oral
M ark
L una
L inda
L illy
K ate
Jim my
H old
Fr ank
D uring
D ay
D an
Bob o
B ad
B aa
 zoom ing
 y aw
 worm s
 wor th
 when ever
 what ever
 we eds
 we apon
 was hing
 war ning
 wait s
 wa ves
 w ob
 vegetable s
 v ictory
 ur ge
 unp ack
 understand ing
 under ground
 un iversity
 tw isty
 to es
 throw s
 throw ing
 teas ing
 t ummy
 t igers
 t ide
 sw itched
 str uck
 sto ve
 step s
 steal ing
 st yle
 st are
 st all
 squee zed
 sound ed
 sor ted
 so ak
 sneak y
 slid es
 side walk
 shr inking
 sho pping
 she lter
 sh ore
 ser ved
 se ats
 sc ri
 s uit
 s ubway
 s keleton
 s ix
 ru sh
 ru bbed
 rock ing
 robot s
 rid es
 retur n
 rest ing
 res pon
 remind ed
 record ing
 recogn ized
 rece ived
 re verse
 re pe
 re lease
 re fused
 re fuse
 ra zor
 ra ised
 qu ack
 pupil s
 pump kins
 pull ing
 post man
 point s
 poin ting
 po ss
 po se
 play s
 plan es
 pl astic
 pin ched
 pin ata
 pee ked
 pedal s
 past ry
 par ade
 p ra
 p istol
 p ies
 oy ster
 our s
 order ed
 offic er
 no body
 night mares
 new sboy
 neighb our
 nation s
 nap s
 my self
 must ache
 mot ion
 med ium
 meas uring
 mark ers
 man e
 mag azine
 m ild
 m icroscope
 m ice
 m ath
 li e
 let s
 law n
 la ser
 l ecture
 kn own
 kn ot
 kn ocks
 keep ing
 jog ging
 jog ged
 jo kes
 jet s
 invit ation
 imag ined
 hunt er
 helmet s
 he sit
 hang ing
 ha ll
 grow led
 gr in
 go at
 go al
 glow ing
 gif ted
 gear s
 gas ped
 g um
 fur niture
 free zer
 flap s
 fis hing
 firework s
 fire men
 fet ch
 f uel
 f araway
 exc laimed
 exam ine
 ex pect
 even ing
 entr ance
 ent ered
 eager ly
 e vent
 e mergency
 e ffort
 driver s
 dist ance
 disco very
 dis hes
 dis cu
 dinosaur s
 d uring
 d are
 d a
 cudd le
 cross ed
 creat ed
 cras hed
 count er
 cool er
 comet s
 clo set
 chew ing
 chew ed
 che ck
 ch oice
 ch irp
 ch allen
 ce le
 cat ches
 car ries
 call ing
 ca kes
 ca ble
 c ustomer
 c ro
 c ork
 c obweb
 button s
 bur st
 bu zz
 bu ses
 bu ried
 bright ly
 bre eze
 bre aking
 br ushes
 boat s
 blue ber
 black board
 bl ink
 bell y
 band age
 bag s
 ba king
 b ones
 are a
 applaud ed
 apolog ize
 angel s
 al ive
 ad vice
 acce pted
 acce pt
 a ch
 Wh o
 W ednesday
 W affle
 T uesday
 S ky
 Ru by
 Rob o
 R emember
 R alph
 P uppy
 P izza
 P inky
 O w
 Mom ma
 M onica
 M iss
 M aria
 K im
 John ny
 He re
 G race
 F or
 F lora
 D oggy
 D in
 D avid
 A untie
 A nt
 A bby
w ed
v i
us b
usb and
unn el
une y
un es
um es
ult s
ught er
ug gle
uc ture
uc ed
u sed
ter net
t s
t ime
st r
st ers
ri an
ret end
re nder
re ly
rat ul
r uney
r u
r own
r ight
qu ip
quip ment
pl ash
p oon
p are
ou ch
ot s
ost ing
os en
ore s
oph ia
ong ratul
ome one
om as
ne ath
n iversity
n ey
med i
medi ately
m m
m ies
m el
mel ia
look ing
l en
it ion
ink ling
ind e
inde er
in ing
im ney
ib il
i ving
i pping
i ers
i bbit
ht er
h urt
g ive
ent y
end er
en se
en gers
eci ally
e ed
e ally
d ing
d ile
d ged
d a
cu se
co dile
ck y
c lock
c ious
c akes
c age
be y
at ched
ar nt
ant ly
an s
air y
ag ing
a pping
a id
Z oom
W oof
W atch
To day
T oby
T illy
S urpr
S ophia
S omeone
S low
R ibbit
R emy
Q u
P oppy
P aul
N ever
Mr s
M imi
M ill
M ika
M ama
M aggie
K elsie
J ulie
J ason
G et
G ary
F ine
E ventually
Day s
B etty
B ella
A nn
A ll
?" .
?" ,
? !"
.. .
! '
 zoom ed
 yog hurt
 y ucky
 wra pping
 work er
 wis hing
 wis ely
 wink s
 win ter
 win ning
 win king
 wig gly
 wig gled
 whist ling
 water ed
 wait er
 waff les
 w ins
 visit ing
 van ished
 up side
 unt ie
 un l
 twir led
 tw ice
 trick y
 treasure s
 tr u
 torn ado
 to night
 tim er
 th rill
 teas poon
 teach ing
 task s
 t unnel
 sw ooped
 sur render
 superhero es
 sun light
 strugg ling
 stri kes
 str ucture
 store keeper
 stom ped
 stick y
 stick er
 stay s
 star ting
 st ing
 squ as
 spill s
 some where
 sold iers
 so da
 so aring
 snow ball
 sna pped
 sn ugg
 sn atched
 slow er
 sl apped
 sign s
 sho ck
 sell ing
 see ing
 search ing
 scri bb
 scrat ched
 sc ru
 sal t
 sad ness
 s izes
 s im
 s igh
 s ense
 ru by
 roll s
 rob in
 ro aring
 ring ing
 ri bbit
 respon s
 repe at
 remind er
 rem ained
 relax ed
 reg ret
 rece ive
 rec ipes
 reach ing
 re qu
 re indeer
 rat s
 ran g
 ra ising
 r ust
 r ow
 qu ite
 puzzle s
 purp ose
 puppet s
 prov ided
 problem s
 pro ject
 pretend s
 pret t
 pre pare
 pre cious
 pr unes
 pow ers
 po ses
 po king
 ple ased
 pl enty
 perform ed
 perfect ly
 pencil s
 pe ered
 pattern s
 pat ted
 pass engers
 pair s
 pad d
 pack ages
 p ur
 p apers
 p alm
 own ed
 organ ize
 ol ives
 off er
 of ten
 o dd
 o bey
 o at
 nest s
 nail s
 mov ies
 mix ing
 miss ing
 mass age
 man aging
 man age
 ma ster
 ma sk
 loo se
 long est
 lo cked
 lead s
 le arnt
 laug hter
 l ung
 l ined
 l imes
 kiss es
 king dom
 kick ing
 keep s
 join ing
 jo king
 introd uced
 introd uce
 in ternet
 import ance
 im mediately
 im age
 hum ming
 hon k
 hear ing
 head ed
 he ight
 he dge
 happ iest
 half way
 h usband
 h itting
 h i
 grow ls
 gra bbing
 frog s
 fr osting
 forg ives
 for t
 foot ball
 follow s
 float y
 flo ated
 fl utter
 fl apped
 find s
 film s
 fig ured
 feed ing
 explor ed
 ex it
 ent er
 eat s
 eas ily
 e quipment
 e ch
 dri ving
 dress es
 dragon s
 doll house
 dog gy
 discu ss
 dis ag
 direct ions
 dig ging
 differe n
 demand ed
 deliver ed
 del ay
 decor ations
 dear s
 da ughter
 d ared
 d aisy
 cur led
 cup board
 cudd led
 cro codile
 cre ations
 cre ation
 craw l
 crack ers
 cra sh
 cr unch
 count ry
 cost umes
 cont ain
 comp any
 col ours
 co pper
 cl ick
 chan ging
 ch osen
 ch imney
 cartoon s
 can es
 calm ed
 c oug
 c ause
 by e
 bur ning
 build ings
 bring ing
 brave ly
 bo om
 blueber ries
 block ing
 bird ie
 bird cage
 bear s
 bea st
 be g
 bal an
 bad ly
 ba rely
 b umpy
 att ention
 att ached
 arrow s
 arri ve
 app ear
 an n
 amaz ement
 am ount
 al right
 after wards
 adm ir
 add ing
 ad ults
 act ually
 ach ieve
 ac ted
 a imed
 When ever
 W elcome
 U niversity
 Tweet y
 Tweet ie
 To oth
 Th omas
 Soph ia
 Somet hing
 Some one
 Sm ith
 S oup
 R onnie
 R eady
 Pe ople
 P runey
 P ilot
 O ur
 O K
 N ot
 M oby
 M ika
 M ama
 L ike
 L ater
 G ina
 G et
 G eorge
 Fr ank
 Fin ny
 F ollow
 F airy
 E llie
 Din osaur
 D id
 C l
 Buzz y
 Be cky
 B rown
 B rian
  x
  X
   
y ou
x cuse
w ra
w h
wh y
w ater
w are
ver s
ve al
v room
v ender
v al
uzz y
uti ous
utious ly
ut ure
ut ion
ust ed
ur ry
ur day
umb s
um mies
um ble
ul pt
ulpt ure
ug s
uct ions
uct antly
uck led
u ild
u es
u ation
t ory
t led
t e
str uctions
sp ired
se ek
se ball
rr r
rom ise
ro ve
ro at
rm omet
rmomet er
ri ke
ri cks
re verse
re ed
re at
ra zy
ra ight
r on
r ist
rist m
ristm as
r ig
que ak
queak y
pt oed
pp les
pl ain
p om
p ie
pie ce
p ecially
ow s
ous in
ound s
ou is
os ity
or ed
or der
ook y
ook s
ongratul ated
on est
omet imes
om ing
om ed
omed ay
oll ed
oc used
o ors
o ke
o e
n s
n k
n joy
mor y
mb ers
m ato
le ted
le e
l ue
l ive
l ings
l ier
l anes
iver se
ist en
isk s
ising ly
is hing
is fied
ink les
ink led
in t
ig ning
ig eon
ig ate
if orm
id el
idel ines
ic ing
ibil ity
ib lings
i ptoed
he st
ha usted
h ind
h ile
fe e
f ound
f orm
f ire
f fee
f ast
et y
et s
est igate
ess ion
es ide
ent ly
end ant
en ing
en e
em ies
em b
emb ers
ed om
ed ic
ed ding
e el
e ating
e al
d oors
d ate
com ed
cap ed
c al
br ate
b uild
b ug
b rated
b our
b ling
b an
ban g
b age
az ed
at ure
at urday
ar ling
ar get
ar bage
ap id
an gu
an ation
an an
anan a
am med
am bour
am ber
ad es
a ze
a ved
a ster
Z ippy
Yes terday
Wh iskers
W ould
W ith
Tr ue
T weet
T ony
Surpr ise
Sh rink
Sam my
S unny
S plash
S ometimes
S illy
Ru dy
R ose
R emember
R ec
R eally
R alph
Qu acky
P ut
P izza
O ur
O r
O llie
O live
O k
Not hing
N ear
Mom ma
M mm
M iss
M aria
M andy
L ena
J ump
J ethro
J en
J azz
Ha ppy
G reat
G race
Fr eddy
F reeze
F or
F irst
F iona
E xcuse
E lly
D ucky
D rink
C hew
C he
C h
C at
Be ware
Be fore
B rrr
B lue
B ird
B ill
B ig
B ecause
A w
A n
A melia
A choo
A bby
. '
, '
' ?"
' ."
" ,
! '.
 â 
 zebra s
 z ipped
 yes terday
 yaw ned
 yaw n
 wrap s
 wob bling
 wis dom
 wip ing
 wind y
 win ner
 where ver
 wh ip
 wel comed
 wear s
 we ight
 water s
 was ting
 warn ings
 warm er
 want ing
 wag ging
 wa nder
 wa ist
 w oof
 w ife
 w id
 w edding
 v owed
 v ines
 ur ged
 unp acked
 unl ocked
 under water
 under neath
 un wra
 un iverse
 un ited
 un iform
 un f
 tw inkling
 turn ing
 tru ly
 trip s
 tri cked
 tremb led
 tr ad
 touch ing
 top s
 too l
 to re
 to mato
 tick led
 tick le
 thrill ed
 the rmometer
 th roat
 th orn
 terri fied
 team work
 te ased
 tast iest
 tast es
 ta pping
 t une
 t ummies
 t ugged
 t iptoed
 t ipped
 t arget
 t ambour
 sw eating
 sw ap
 sur round
 study ing
 strugg led
 str uggle
 str ings
 stom ach
 sto len
 sto le
 stick ing
 ste er
 st ung
 st umble
 st raight
 st acked
 st able
 squirrel s
 squas hes
 squ awk
 spr inkles
 spot s
 sport s
 spoon s
 spo ken
 spid ers
 spark le
 sp ooky
 sp it
 sp at
 sp ades
 sp ace
 sort s
 sol ving
 so re
 so bbed
 so ared
 snugg led
 snowball s
 sna kes
 sn ug
 sn uck
 slow ed
 sleep s
 sl ice
 sl ammed
 sk unk
 sk ipping
 sit uation
 sit s
 sister s
 sim ple
 shr ank
 shop keeper
 shoot ing
 shiver s
 she lves
 shadow s
 sh ield
 set tled
 seem s
 second s
 se wed
 se ven
 scru bbing
 scribb led
 scream ing
 scratch ing
 scrat ches
 scold s
 scatter ed
 sc ulpture
 sat isfied
 sail or
 saf ety
 sad der
 sa nk
 sa iling
 s omeday
 s ings
 s ides
 s idelines
 s iblings
 rust ling
 rub s
 ru le
 ru ining
 ru bble
 ru bb
 roar s
 rest ore
 rest ed
 respons ibility
 res ult
 requ est
 rem embers
 rel uctantly
 rel ief
 recommend ation
 recogn izing
 rec order
 real izes
 re veal
 rainbow s
 rain ing
 r owed
 r isks
 r apid
 qu acked
 puzz led
 pur r
 pri ce
 prett ier
 press ing
 pray ed
 pra ised
 pra ise
 pot s
 pot ato
 poss ession
 pol ish
 pocket s
 play time
 play date
 planet s
 plan ned
 pl ug
 pile s
 phot os
 pebble s
 pean ut
 pe el
 pe ek
 pe ach
 patient ly
 path s
 past el
 part s
 part ies
 pan s
 pan cakes
 paint s
 padd led
 p oop
 p om
 p itch
 p ant
 oy sters
 out doors
 ol ive
 o h
 new found
 nervous ly
 neighbor hood
 n ature
 mom ma
 mod el
 mo on
 mo ats
 min ute
 mel ted
 me owed
 me mory
 me mbers
 mat ched
 master piece
 mass ages
 m ug
 log s
 load ing
 load ed
 lo ving
 lo cket
 lo cal
 light er
 li ck
 lemon ade
 lady bug
 la vender
 l uck
 l ines
 l end
 l angu
 knight s
 kneel ed
 kn elt
 kick s
 keep er
 k ings
 k ill
 jo ked
 jewel s
 j ack
 iron ed
 invit ations
 inv estigate
 interest ed
 ind eed
 incre ased
 inclu ded
 inclu de
 in structions
 in spired
 imp rove
 imag in
 hum an
 hop es
 holiday s
 his tory
 hig hest
 hid es
 hat e
 hand led
 had n
 h our
 guess ed
 gu est
 group s
 ground s
 grin ned
 grass y
 gr own
 gr ant
 got ten
 good night
 glitter y
 glass es
 g ross
 g ro
 g lee
 g azed
 g aze
 g arbage
 g ained
 fur ther
 frown s
 fre edom
 fr idge
 forget ting
 forg iving
 fool ed
 flutter ed
 float ing
 fl our
 fl ips
 fl ip
 fl ight
 fl apping
 fire s
 fire man
 field s
 far ther
 fan s
 fam il
 fair ies
 fa ult
 f uture
 f ocused
 f ile
 f er
 expl o
 expl anation
 exerc ising
 ex hausted
 every day
 es pecially
 es caped
 ent ire
 eng ines
 end s
 encou ra
 enc ount
 en emies
 embarra ss
 ech oed
 eat en
 ear lier
 e ight
 dust y
 drum s
 drink s
 dri ves
 dream t
 draw s
 draw n
 down stairs
 do dged
 do ck
 dish onest
 discover ies
 disapp ear
 disag reed
 direct ion
 different ly
 differen ce
 di ving
 di pped
 dest ination
 design s
 des igning
 decor ation
 decor ating
 decor ated
 dec ides
 dan cer
 d ried
 d ots
 d ips
 d arling
 curious ly
 cur ly
 crunch y
 crocodile s
 creat ing
 craw ling
 cr umbs
 cr ops
 cover s
 coug hed
 cop y
 cop ied
 coo ed
 contin ue
 contain er
 cont ent
 complet ely
 comp romise
 comp leted
 com plain
 com b
 color ed
 coll ected
 coll ect
 cobweb s
 co ffee
 club house
 climb s
 clap s
 cl ues
 chirp ed
 che ers
 chan ges
 challen ging
 challen ge
 ch uckled
 ch at
 ch amber
 cele brated
 cele brate
 cap e
 can s
 camp fire
 c ousin
 c ot
 c ongratulated
 c ent
 buzz ing
 bury ing
 bulb s
 build ers
 buck les
 buck le
 bu dge
 breat hing
 break fast
 bottle s
 blow ing
 bleed ing
 bl ush
 bl ood
 bel t
 bel ieved
 beh aved
 beg ged
 beep ed
 bec oming
 bathrob es
 bat he
 balan cing
 back wards
 back s
 ba seball
 b ricks
 b oo
 b eside
 aw hile
 aunt ie
 att ic
 att endant
 att ack
 appreci ation
 appreci ate
 apolog ized
 ap ron
 agre ement
 ag o
 af ar
 admir ation
 Z oe
 W ant
 W acky
 Tim e
 The se
 Th ose
 T ur
 T ony
 St ay
 S queaky
 S p
 S low
 S ix
 S ince
 S aturday
 Rob e
 P retend
 P lanes
 P igeon
 N one
 M andy
 Liz ard
 Le vi
 L ouis
 J ethro
 Is n
 How ever
 H ave
 Good bye
 G iant
 Fr oggy
 For g
 F irst
 F iona
 E ventually
 E njoy
 E ach
 Cl ub
 Ch ristmas
 C lock
 Be fore
 B y
 B ooks
 B irthday
 B ecause
 B anana
  ow
  ouch
  Yesterday
zz y
z ip
z ing
z ag
x oph
xoph one
w o
w im
wim ming
w he
whe els
vers ing
ver ing
ver ance
vent ions
ven ir
venir s
ven ess
v est
v ation
v ast
vast ated
v ant
vant age
uzz les
ut y
ut or
us ing
urry ing
urpr isingly
urp le
ur ky
ur b
unch ing
un ked
un ity
un iting
un ches
um mer
um ing
um ent
ul ture
ulture s
ul p
ul f
uggle s
udd led
udd ered
uc ked
u se
use ment
u ri
uri osity
u nd
und ay
u ises
u ess
u dy
udy ing
u dge
to es
th s
th row
throw ing
th rough
th ough
ter s
t iv
tiv ated
t ally
t age
str on
stron a
strona uts
stead y
st rike
st and
stand ing
ss ible
ss es
squ awk
sp ecially
so l
sol ve
ser y
ser vation
se verance
se qu
sequ en
sequen ces
se mb
semb led
sc in
scin ated
s n
sn ap
s m
sm ell
smell ing
s ing
s hing
s her
s he
s end
s aur
ross ed
rom a
ro ached
rig ued
rig gle
riend s
ri ble
ri bbit
ri ately
ri angle
rew ork
rework s
ret ty
ren s
ren ch
rench ing
rel iable
rect ly
ream s
re shing
re nt
re led
re edy
ray ing
ra p
rap her
ra ck
r us
r umpy
r or
r op
rop riately
r oof
r olled
r is
r in
rin ts
r ily
r an
ran ged
qu et
qu ered
pt s
pt ing
pp ings
pl ish
plish ment
pl anes
pe edy
p rints
p ly
p lease
p ite
p irit
pirit s
p arent
parent s
p ack
oy ed
ow ing
out s
our ed
oun ced
ou venirs
ou quet
ou ched
ost ume
os es
ors es
ord ination
or rectly
oph ies
op es
op ed
oop ing
ood ed
oo gly
oo ed
ongratul ations
omet s
ome let
omelet te
om plishment
ol oured
og rapher
oc ious
o ves
o ved
o ssible
o pped
o or
o kes
o ken
o k
o id
o ic
oic es
o h
o es
o d
od ies
o ar
ny time
nder standing
nd s
nament s
n other
n o
n if
nif ic
nific ent
n c
n as
my ard
m unity
m ly
m ates
m ate
m atch
ly ly
ll as
len ess
led ge
leas ing
le ct
lect ion
le ased
le a
l utter
l though
l ost
l o
l ig
lig e
l ied
l akes
l ace
ke nds
joy ed
j ust
j ected
izz led
iv ity
iv ation
itt ered
ither ed
it ive
it ies
it ely
it am
itam ins
ist ing
ist ened
iss ion
ish y
is play
is le
is ies
is hes
is herman
iron ment
ire r
ir mly
ir k
ir c
irc led
ipp o
ip ed
ip ation
int erest
interest ing
ind ness
in se
in ning
in ion
in et
im p
ill ier
il way
il ence
ight ing
ig zag
ig s
ig ion
ig hing
ig gled
ie ves
ident s
ident ly
id ing
id ers
ic ipation
ic iest
ic er
ibil ities
ib ly
i veness
i reworks
i rens
i ar
he llo
he ese
he e
ha ft
h ot
h i
h ar
har med
get ic
g ic
g h
form ed
fe at
fa ced
f un
f riend
f ree
f low
f less
f lakes
f it
f ine
f ind
f idently
ex cuse
et itive
et ed
et ch
etch up
et ail
es y
es ome
es haft
erv ice
erri fied
eros ity
er ve
er n
er ked
er gic
er fully
er ced
ep y
ep ed
ention ed
ent ured
ent ing
ene ath
ender ly
end ed
en nas
em pts
elp ed
el ieve
ek s
edic ted
edic ation
ect angle
ect ac
ectac ular
ec ting
ec hed
ea ked
e pper
e kends
e f
e ese
e ep
e at
d s
ct ually
ct ly
com ing
ck ly
ck led
ch ild
cer ned
cer ies
cc idents
c ut
c ue
c ters
c ream
c oloured
c key
c her
c ery
c ause
build ing
br own
br ations
box es
be ep
be ara
beara ble
b s
b or
b oo
b it
b elieve
b ecause
aw ked
atter ies
atter ed
ate y
at ted
at ive
at form
ast ly
as ing
as hing
art led
arl ings
ark able
are st
ard less
ara cters
ar ty
ar m
ar led
ar inet
ant astic
ans formed
angle s
an ted
an ny
an gled
an ges
an ed
an ced
amp ered
amp ed
am age
all oped
all ing
al y
ak en
ail s
ad y
ad s
ad os
ad a
a way
a ven
a utiously
a ughty
a ppy
a ked
a ctly
a ced
a bbit
Z ip
Z iggy
Z ara
Y ummy
Y et
We e
W ild
W hee
W ant
W ake
W affle
U se
U p
U nderstanding
U h
U gh
Tr ust
Tr ade
Thank fully
Th row
Th ree
T ry
T ree
T iny
T H
TH E
Surpr ised
St udying
St rike
St rawberries
St ill
St eel
St ar
St and
Sh outs
Sh ould
Sh oo
See ing
S wimming
S un
S pirits
S peedy
S oup
S ix
S ad
Ru de
Ru by
Rec ord
Rec ommend
R un
R osie
R oof
R onnie
R oar
R ex
R ed
R ain
R achel
Qu ick
P urple
P retty
P retend
P ilot
P ete
P epper
P ass
On ly
O ver
O ut
Near by
N aughty
N G
Mia ow
Me ow
Me al
M ove
M onica
M oby
M o
M any
M anny
Le vi
L ydia
L ulu
L isten
L ike
L ife
K ing
J une
J essie
J ake
Is n
How ever
Hi ppy
H urry
H op
H mm
H arry
Good night
G uess
G row
G erry
G eorge
Fr ustrated
Fr og
F riends
F red
F ollow
F isherman
F ish
F eed
E w
E at
Dan gerous
D reams
D isplay
D eal
D anger
Che ers
Che erfully
Ch irpy
Ch irp
C razy
C rack
C ostume
C ongratulations
C oco
C lock
C autiously
C atch
C ar
Bird y
Ben ny
Be hind
B uzzy
B uzz
B oom
B ibi
B essie
B ear
B all
B ack
B aby
B A
BA NG
Aw w
Ah oy
A pples
A manda
A lly
A ctually
? '
1 0
.. ."
' ve
' ,"
!â .
! ?",
! ,â
 z one
 z igzag
 your selves
 yield ed
 yell s
 yell ing
 y elped
 writ er
 wra ppers
 wr itten
 wr ist
 wr inkled
 work s
 work ers
 wor n
 wonder ing
 wob bled
 wob ble
 win ked
 wig gle
 wid ening
 wid ened
 whist led
 wh iz
 wh ipped
 wh ine
 were n
 weigh s
 week s
 weapon s
 weak er
 we pt
 we ighing
 we ighed
 we ekends
 we bs
 we ather
 water ing
 was te
 warm th
 wander ed
 wal rus
 wa nna
 wa kes
 wa iled
 wa ded
 w ow
 w ounds
 w ound
 visit ors
 vi brations
 van ish
 valley s
 v oices
 v itamins
 v entured
 v ases
 v ain
 us ual
 ur ges
 unwra pping
 unwra p
 unt ied
 unt angles
 unl ike
 uniform s
 unf old
 unf air
 un zip
 un steady
 un rolled
 un harmed
 un bearable
 un able
 umbre llas
 twist s
 twist ing
 twir ls
 twir l
 tw inkled
 tw in
 tw igs
 tw eet
 turkey s
 trust s
 trump eter
 tru dged
 triangle s
 treat ed
 travel s
 trad ing
 trad ed
 tr ophies
 tr ansformed
 tower ed
 towel s
 tour naments
 touc hes
 too ls
 tomato es
 to tally
 to sses
 to ssed
 to ppings
 to ne
 to aster
 tick les
 tick ets
 tick et
 thu d
 through out
 thre at
 thin ner
 thankful ness
 th us
 th ugs
 th ird
 th ieves
 tem pting
 teac hes
 tast ing
 tap s
 tambour ines
 tambour ine
 tall est
 tall er
 tail s
 table s
 ta pped
 ta ckled
 t utor
 t umbled
 t ucked
 t ippy
 t ipping
 t inkling
 t enderly
 t angled
 sy nc
 swim s
 swim mer
 sweet est
 sweet er
 sw ipes
 sw iped
 sw apping
 sw ans
 sw an
 surround ing
 surround ed
 surrender ing
 surrender ed
 surpr isingly
 surpr ises
 sur faced
 supp orted
 supp lied
 suit able
 suggest s
 succeed ed
 stuff ed
 stud ent
 stri p
 street s
 stream ing
 stream ers
 str olled
 str okes
 str oke
 stom p
 ste ep
 ste ady
 stay ing
 st itched
 st itch
 st ink
 st ings
 st ern
 st ench
 st ash
 st amped
 squee zing
 sque al
 squas hed
 squ ishy
 squ inted
 squ awked
 squ atted
 spring ing
 spray s
 spo il
 splas hes
 spl itting
 spit s
 spend ing
 spe wed
 spe aking
 sp ins
 sp ectacular
 sp attered
 sound ly
 soon er
 sol ution
 soft ened
 soap s
 so cks
 so bbing
 so aked
 snugg ly
 snug ly
 snow s
 snow flakes
 sniff s
 sneak ers
 snap s
 sn uggles
 sn ort
 sn ooping
 sn eaked
 sn arled
 smooth ly
 smile y
 small est
 sm irk
 sm ash
 sli pping
 sl udge
 sl opes
 sl ithered
 skirt s
 sk ill
 sing le
 since re
 sim ply
 sil ently
 sigh s
 shrink s
 shr unk
 shr ugs
 shovel s
 should ers
 shop s
 shiver ed
 shirt s
 she d
 share s
 sh uddered
 sh own
 sh all
 sh aken
 set s
 send s
 send ing
 sel fless
 seek er
 secret ly
 se w
 se ason
 scru bbed
 scribb ling
 scri bble
 screen s
 scre eched
 scar ves
 sc urrying
 sc ores
 sc ored
 sc ore
 sc oop
 sc ience
 sc ene
 sc aring
 sc ampered
 sc aly
 sandcastle s
 salad s
 sal ty
 sail ors
 sa xophone
 sa le
 sa cks
 s ummer
 s owing
 s ouvenirs
 s lyly
 s izzled
 s irens
 s ip
 s illier
 s ilk
 s ervice
 rust y
 run ner
 rubb ish
 rubb er
 ru in
 ru bbing
 rot ten
 roll er
 rod s
 rocket s
 rock y
 ro ot
 ro cked
 rid er
 ribbon s
 ri pples
 ri pped
 ri p
 ri ches
 reveal ed
 retur ning
 rest ored
 respons ible
 respon se
 resist s
 res cue
 requ ested
 reply ed
 repl ies
 repe ating
 remind s
 rem oved
 rem arkable
 rem ain
 rel igion
 reg ardless
 ref reshing
 ref lection
 recommend ing
 rec ipe
 real izing
 real ize
 read s
 re ward
 re versing
 re uniting
 re solve
 re ly
 re leasing
 re leased
 re jected
 re ef
 re eds
 re build
 re ason
 rapid s
 rapid ly
 ran ger
 ra king
 ra ilway
 r ises
 r inse
 r ather
 r ake
 quiet ly
 quiet er
 question ed
 queen s
 quar reled
 quack s
 quack ing
 qu ench
 purr s
 purp oses
 pur red
 pupp ies
 prot ecting
 prot ected
 prom ises
 pro ven
 print s
 princess es
 prin ted
 pri zed
 pri ckly
 prevent ing
 prett iest
 present s
 present ation
 pres chool
 pract icing
 pr ops
 pr edicted
 pour ing
 poss ible
 poss ibilities
 pol itely
 pol ishing
 pol ished
 pol ar
 poin ty
 po ster
 po pping
 ple asure
 ple ad
 playground s
 play room
 play mates
 plant ing
 pl ot
 pl atform
 pl ain
 pl aced
 pi erced
 phot ographer
 perm ission
 perform ing
 per severance
 per ched
 pee king
 pedal ed
 ped alling
 peaceful ness
 peace fully
 pe eped
 pe as
 pe ak
 pay ing
 pat ience
 past els
 pass ing
 par ked
 pant s
 pant ing
 pain ful
 padd ling
 pad s
 pad dle
 pack ing
 p ulp
 p ounds
 p leas
 p aused
 over joyed
 over head
 over flow
 over coming
 out ing
 out fit
 our selves
 organ izing
 or anges
 open ing
 op inion
 op e
 on wards
 off ers
 ob lige
 o ink
 nur sery
 notebook s
 no ses
 newsp apers
 neighbour hood
 neigh s
 need les
 neck lace
 near ly
 ne ither
 ne arest
 nap kins
 na pping
 na pped
 n uzzles
 n icer
 must n
 mushroom s
 mush y
 mum mies
 mot ivation
 mon ument
 mon ths
 mon sters
 mo pping
 mo aned
 miss ion
 mis ses
 min eshaft
 mess es
 mel odies
 mean ing
 mean ie
 meadow s
 me ows
 matter s
 match ing
 mat s
 march ing
 mag nificent
 mach ines
 ma iled
 m urky
 m unching
 m unches
 m ooed
 m itt
 m entioned
 m atey
 lunch boxes
 low ers
 long ing
 load s
 lo ses
 lo lly
 light ning
 light ing
 lift s
 life less
 lick ing
 libr arian
 li ed
 lesson s
 learn s
 lean ing
 lead ing
 lead er
 lea king
 le vers
 le ver
 le ap
 langu ages
 langu age
 l ush
 l umpy
 l ittered
 l inked
 l imp
 l ime
 l ily
 knowing ly
 know ledge
 kneel ing
 kne els
 kn ob
 kn ife
 kitten s
 kit es
 kind ly
 kind est
 kind er
 kill ed
 key s
 kay aking
 k etchup
 jump er
 ju iciest
 journey s
 job s
 jam s
 jack ets
 jack et
 j umbled
 j iggled
 j erked
 itch y
 it ches
 is n
 iron ing
 int rigued
 int ended
 ins isting
 incred ibly
 inclu ding
 in ventions
 in ch
 imp ossible
 imagin ative
 imagin able
 imag ining
 imag es
 ignor ing
 ignor ance
 ign ition
 hunt ers
 how led
 how ever
 hot ter
 hor ror
 hor rible
 hope ful
 hoop s
 honk s
 hon king
 hon ked
 ho vering
 ho ckey
 hit s
 his ses
 his sed
 hide away
 hid er
 hesit ation
 hesit ated
 hesit antly
 hesit ant
 hero es
 heart s
 heal ed
 head ing
 he ns
 he n
 he aven
 hat es
 hat ched
 hat ch
 hard ly
 har vest
 har sher
 har bor
 hands ome
 hand ful
 hair cut
 ha ted
 ha lo
 ha bit
 h uddled
 h ooded
 h ire
 h ippo
 h int
 h ike
 gun s
 guest s
 gu ards
 grow ling
 gro cery
 gro ceries
 green s
 gre y
 gre eted
 grandson s
 grand parents
 grand child
 gr anted
 good ness
 go bble
 glow ed
 glee fully
 gl ued
 gl oves
 gl istened
 gl iding
 gir ly
 giggle s
 giant s
 gi ven
 ghost s
 gent leness
 gen erosity
 gather ing
 garden s
 g oogly
 g eese
 g awk
 g alloped
 g ain
 fright ening
 friendship s
 fox es
 forget s
 forest s
 fore head
 for ming
 foot prints
 floor s
 flo ppy
 fl at
 fl ashing
 fl ames
 fin ishing
 fin ishes
 fill s
 fill ing
 figure s
 fi zzy
 fi ber
 fet ches
 fet ched
 fest ive
 fer ris
 fer ocious
 feed s
 fear s
 fe ast
 far myard
 famil ies
 famil iar
 fa scinated
 fa irer
 fa iled
 fa il
 fa ct
 fa ced
 f uzzy
 f uming
 f ought
 f lea
 f ished
 f irmly
 f antastic
 f ame
 explor ation
 explo ded
 explo de
 exam ined
 ex pected
 ex actly
 every body
 env ironment
 entr anced
 enthusiastic ally
 enjoy ment
 eng ulf
 eng rossed
 ener getic
 encourage ment
 encoura ging
 encoura ged
 encount ered
 encount er
 elephant s
 el ated
 eggs hell
 ech oes
 eas ier
 e arn
 drum mer
 dro pping
 dri pped
 dri p
 dri fted
 dri ft
 dream ily
 drag ged
 don key
 doctor s
 dist urb
 display s
 disgust ed
 discu ssed
 disag ree
 differen ces
 destroy ing
 dessert s
 design ed
 des pite
 des ire
 des erve
 demand s
 demand ing
 delay ing
 delay ed
 de vice
 de vastated
 de feat
 dan gers
 dan ces
 da isies
 d unked
 d renching
 d itch
 d ip
 d etail
 d enting
 d edication
 d ates
 d arlings
 d amage
 curi osity
 cur sed
 cur rent
 cup cakes
 cudd les
 crunch iest
 crow ds
 cro aking
 creat ivity
 cre pt
 cre epy
 cre aking
 cre ak
 cras hes
 cra fted
 cra cks
 cra cked
 cr ouched
 cr ouch
 country side
 count s
 coug hing
 cot ton
 cot tage
 con servation
 con sequences
 con quered
 con fidently
 con cerned
 comp etitive
 comp ared
 comfort s
 comfort ing
 comf y
 comb ed
 com munity
 collar s
 cold er
 co ordination
 co ats
 co aster
 clown s
 cloud y
 clo sing
 clo ses
 climb ers
 climb er
 clim ax
 click s
 clean er
 cle aring
 class mate
 cl ue
 cl arinet
 child hood
 che esy
 che eks
 chat ting
 char ity
 ch ores
 ch opped
 ch op
 ch in
 ch ief
 ch ats
 ch asing
 ch aracters
 cent re
 cent er
 cat cher
 cart wheels
 care s
 cap tivated
 cand ies
 camp ground
 cact i
 ca utiously
 ca ution
 c ultures
 c ough
 c orrectly
 c ores
 c oop
 c m
 c ircled
 buzz ed
 buy s
 buy ing
 but ts
 bush y
 bus iness
 burst s
 bur nt
 bump s
 bump ing
 bro om
 breat hed
 bra very
 bra nd
 br uises
 bow s
 bow ed
 boun cy
 boun cing
 bother s
 bother ed
 boo ked
 bo bbed
 blueber ry
 blow s
 bloom s
 bloom ing
 ble ats
 bl ushed
 bl inking
 bl ast
 bl ade
 bend ing
 belong ings
 bel ts
 bel ow
 beg inning
 bec omes
 bea uty
 be at
 be ans
 batter ies
 bath s
 basket ball
 bar s
 ban ner
 ban ged
 balan ced
 bad ges
 bad ge
 back pack
 ba kes
 ba it
 ba cked
 b ouquet
 b ound
 b itten
 b eneath
 b ank
 aw oken
 aw oke
 aw esome
 aw e
 aw ake
 avoc ados
 av oid
 attack ing
 att empts
 att ach
 as sembled
 art work
 arri ving
 arri val
 ar ranged
 appreci ated
 appl ause
 appear s
 app ropriately
 app roached
 apolog izes
 ap art
 any body
 ant icipation
 ant ennas
 answ ers
 ann oyed
 ann ounced
 ann ounce
 ang rily
 amb ition
 am using
 am usement
 am used
 all ows
 all ow
 all ergic
 al arm
 air planes
 ag es
 after all
 aeropl anes
 admir ing
 add ition
 ad vantage
 act s
 ach ieved
 accident s
 acc omplishment
 ac he
 a stronauts
 a roma
 a isle
 Who ever
 Whist ling
 W riggle
 W oof
 W ish
 W ell
 W atch
 W ait
 Under neath
 U pon
 U p
 Tur tle
 Tur ns
 Tuesday s
 Thank s
 T wo
 T riangle
 T errified
 T ell
 T aking
 T ake
 T ails
 T ag
 St op
 St eel
 St eak
 St artled
 Sp iders
 Sp icy
 Sn ake
 Sm ile
 Sm all
 Slow ly
 Sh ow
 See ing
 S urprisingly
 S ure
 S unday
 S plash
 S leep
 S ilence
 S eat
 S chool
 R un
 R ectangle
 R eally
 R abbit
 Pretend ing
 P raying
 P oor
 P ond
 P aul
 P arty
 P aper
 On ly
 O val
 O ther
 O ff
 Not hing
 N ever
 N ations
 M ummy
 M ove
 M ouse
 M atch
 Le arn
 L ots
 L isten
 L inda
 L ife
 L astly
 K indness
 K eep
 Help ing
 He ads
 H orses
 H appy
 Good night
 Go d
 G rumpy
 G reedy
 G ently
 Fr og
 Fr ance
 Forg iving
 Forg iveness
 F un
 F ribbit
 F lutter
 F leas
 F ish
 F ireworks
 F ighting
 E specially
 E at
 Do es
 Din ner
 D og
 D eal
 D ay
 Cl ose
 Ch oose
 Ch irp
 Ch ina
 Cat ch
 Can ada
 C uriosity
 C ream
 C razy
 C omets
 C heese
 Be ing
 Be hind
 B ugsy
 B oth
 B atteries
 A round
 A nytime
 A nother
 A melia
 A lthough
 A ir
 A ccidents
 " '
  omelette
  icing
  Yoga
  Yet
  Quacky
  Okay
  9
  8
  10
