{
  "0": "\u0000",
  "1": "\u0001",
  "2": "\u0002",
  "3": "\u0003",
  "4": "\u0004",
  "5": "\u0005",
  "6": "\u0006",
  "7": "\u0007",
  "8": "\b",
  "9": "\t",
  "10": "\n",
  "11": "\u000b",
  "12": "\f",
  "13": "\r",
  "14": "\u000e",
  "15": "\u000f",
  "16": "\u0010",
  "17": "\u0011",
  "18": "\u0012",
  "19": "\u0013",
  "20": "\u0014",
  "21": "\u0015",
  "22": "\u0016",
  "23": "\u0017",
  "24": "\u0018",
  "25": "\u0019",
  "26": "\u001a",
  "27": "\u001b",
  "28": "\u001c",
  "29": "\u001d",
  "30": "\u001e",
  "31": "\u001f",
  "32": " ",
  "33": "!",
  "34": "\"",
  "35": "#",
  "36": "$",
  "37": "%",
  "38": "&",
  "39": "'",
  "40": "(",
  "41": ")",
  "42": "*",
  "43": "+",
  "44": ",",
  "45": "-",
  "46": ".",
  "47": "/",
  "48": "0",
  "49": "1",
  "50": "2",
  "51": "3",
  "52": "4",
  "53": "5",
  "54": "6",
  "55": "7",
  "56": "8",
  "57": "9",
  "58": ":",
  "59": ";",
  "60": "<",
  "61": "=",
  "62": ">",
  "63": "?",
  "64": "@",
  "65": "A",
  "66": "B",
  "67": "C",
  "68": "D",
  "69": "E",
  "70": "F",
  "71": "G",
  "72": "H",
  "73": "I",
  "74": "J",
  "75": "K",
  "76": "L",
  "77": "M",
  "78": "N",
  "79": "O",
  "80": "P",
  "81": "Q",
  "82": "R",
  "83": "S",
  "84": "T",
  "85": "U",
  "86": "V",
  "87": "W",
  "88": "X",
  "89": "Y",
  "90": "Z",
  "91": "[",
  "92": "\\",
  "93": "]",
  "94": "^",
  "95": "_",
  "96": "`",
  "97": "a",
  "98": "b",
  "99": "c",
  "100": "d",
  "101": "e",
  "102": "f",
  "103": "g",
  "104": "h",
  "105": "i",
  "106": "j",
  "107": "k",
  "108": "l",
  "109": "m",
  "110": "n",
  "111": "o",
  "112": "p",
  "113": "q",
  "114": "r",
  "115": "s",
  "116": "t",
  "117": "u",
  "118": "v",
  "119": "w",
  "120": "x",
  "121": "y",
  "122": "z",
  "123": "{",
  "124": "|",
  "125": "}",
  "126": "~",
  "127": "",
  "128": "",
  "129": "",
  "130": "",
  "131": "",
  "132": "",
  "133": "",
  "134": "",
  "135": "",
  "136": "",
  "137": "",
  "138": "",
  "139": "",
  "140": "",
  "141": "",
  "142": "",
  "143": "",
  "144": "",
  "145": "",
  "146": "",
  "147": "",
  "148": "",
  "149": "",
  "150": "",
  "151": "",
  "152": "",
  "153": "",
  "154": "",
  "155": "",
  "156": "",
  "157": "",
  "158": "",
  "159": "",
  "160": " ",
  "161": "¡",
  "162": "¢",
  "163": "£",
  "164": "¤",
  "165": "¥",
  "166": "¦",
  "167": "§",
  "168": "¨",
  "169": "©",
  "170": "ª",
  "171": "«",
  "172": "¬",
  "173": "­",
  "174": "®",
  "175": "¯",
  "176": "°",
  "177": "±",
  "178": "²",
  "179": "³",
  "180": "´",
  "181": "µ",
  "182": "¶",
  "183": "·",
  "184": "¸",
  "185": "¹",
  "186": "º",
  "187": "»",
  "188": "¼",
  "189": "½",
  "190": "¾",
  "191": "¿",
  "192": "À",
  "193": "Á",
  "194": "Â",
  "195": "Ã",
  "196": "Ä",
  "197": "Å",
  "198": "Æ",
  "199": "Ç",
  "200": "È",
  "201": "É",
  "202": "Ê",
  "203": "Ë",
  "204": "Ì",
  "205": "Í",
  "206": "Î",
  "207": "Ï",
  "208": "Ð",
  "209": "Ñ",
  "210": "Ò",
  "211": "Ó",
  "212": "Ô",
  "213": "Õ",
  "214": "Ö",
  "215": "×",
  "216": "Ø",
  "217": "Ù",
  "218": "Ú",
  "219": "Û",
  "220": "Ü",
  "221": "Ý",
  "222": "Þ",
  "223": "ß",
  "224": "à",
  "225": "á",
  "226": "â",
  "227": "ã",
  "228": "ä",
  "229": "å",
  "230": "æ",
  "231": "ç",
  "232": "è",
  "233": "é",
  "234": "ê",
  "235": "ë",
  "236": "ì",
  "237": "í",
  "238": "î",
  "239": "ï",
  "240": "ð",
  "241": "ñ",
  "242": "ò",
  "243": "ó",
  "244": "ô",
  "245": "õ",
  "246": "ö",
  "247": "÷",
  "248": "ø",
  "249": "ù",
  "250": "ú",
  "251": "û",
  "252": "ü",
  "253": "ý",
  "254": "þ",
  "255": "ÿ",
  "256": " t",
  "257": "he",
  "258": " a",
  "259": " s",
  "260": " w",
  "261": "nd",
  "262": " the",
  "263": "ed",
  "264": " b",
  "265": " to",
  "266": " and",
  "267": " h",
  "268": " f",
  "269": "in",
  "270": " T",
  "271": " wa",
  "272": "it",
  "273": "re",
  "274": "ou",
  "275": " d",
  "276": " l",
  "277": " c",
  "278": " p",
  "279": "ay",
  "280": " m",
  "281": "er",
  "282": " was",
  "283": "om",
  "284": " The",
  "285": " he",
  "286": "is",
  "287": " n",
  "288": "on",
  "289": "ar",
  "290": "ll",
  "291": " sa",
  "292": "id",
  "293": "im",
  "294": " ha",
  "295": " S",
  "296": "at",
  "297": "ot",
  "298": "ing",
  "299": " g",
  "300": "an",
  "301": "en",
  "302": "le",
  "303": "or",
  "304": "et",
  "305": "am",
  "306": " it",
  "307": "ir",
  "308": " H",
  "309": " th",
  "310": " They",
  "311": "ig",
  "312": "il",
  "313": " in",
  "314": " He",
  "315": " pl",
  "316": " \"",
  "317": "ow",
  "318": "ri",
  "319": "ut",
  "320": "ver",
  "321": " u",
  "322": "pp",
  "323": "ith",
  "324": " play",
  "325": " r",
  "326": " with",
  "327": " said",
  "328": "es",
  "329": " day",
  "330": "oo",
  "331": "On",
  "332": " o",
  "333": " y",
  "334": " her",
  "335": "ked",
  "336": " I",
  "337": " st",
  "338": " She",
  "339": "ld",
  "340": " his",
  "341": " be",
  "342": "ke",
  "343": "ce",
  "344": " Tim",
  "345": " e",
  "346": "nt",
  "347": " big",
  "348": "ck",
  "349": "very",
  "350": " you",
  "351": " on",
  "352": "un",
  "353": " happ",
  "354": " L",
  "355": "end",
  "356": "ily",
  "357": "all",
  "358": " not",
  "359": " do",
  "360": " up",
  "361": " li",
  "362": "riend",
  "363": " they",
  "364": " friend",
  "365": "ve",
  "366": " had",
  "367": "her",
  "368": " want",
  "369": "ad",
  "370": " we",
  "371": " M",
  "372": " of",
  "373": " B",
  "374": "itt",
  "375": "st",
  "376": "se",
  "377": " happy",
  "378": "ent",
  "379": "'s",
  "380": " mom",
  "381": " saw",
  "382": "One",
  "383": " that",
  "384": " so",
  "385": " very",
  "386": "ould",
  "387": " for",
  "388": " sh",
  "389": "ittle",
  "390": " little",
  "391": " tim",
  "392": " k",
  "393": "ound",
  "394": " nam",
  "395": "ch",
  "396": " time",
  "397": " Lily",
  "398": " she",
  "399": ".\"",
  "400": " named",
  "401": " ne",
  "402": " sm",
  "403": " there",
  "404": " bo",
  "405": "!\"",
  "406": " were",
  "407": " Tom",
  "408": "The",
  "409": "el",
  "410": "ved",
  "411": " but",
  "412": " is",
  "413": " wanted",
  "414": "out",
  "415": " It",
  "416": " went",
  "417": " friends",
  "418": " an",
  "419": "al",
  "420": "ht",
  "421": "ug",
  "422": "ide",
  "423": "ry",
  "424": "ome",
  "425": " too",
  "426": " wh",
  "427": "ird",
  "428": "ake",
  "429": "Once",
  "430": " bird",
  "431": "ter",
  "432": " lo",
  "433": "ue",
  "434": " hel",
  "435": " did",
  "436": " loo",
  "437": " all",
  "438": " upon",
  "439": "ill",
  "440": " help",
  "441": " toy",
  "442": " fun",
  "443": " j",
  "444": "ame",
  "445": "ore",
  "446": "get",
  "447": "ra",
  "448": " re",
  "449": "ur",
  "450": " dog",
  "451": " as",
  "452": " at",
  "453": "gether",
  "454": " ba",
  "455": "ly",
  "456": "ind",
  "457": " se",
  "458": " A",
  "459": " cat",
  "460": " together",
  "461": " tre",
  "462": "ax",
  "463": "ood",
  "464": "ted",
  "465": " ro",
  "466": "ic",
  "467": "ec",
  "468": " their",
  "469": "ain",
  "470": " ball",
  "471": " can",
  "472": " are",
  "473": " man",
  "474": " him",
  "475": "ark",
  "476": " them",
  "477": " could",
  "478": " played",
  "479": " Max",
  "480": " fr",
  "481": "ard",
  "482": " kn",
  "483": " sad",
  "484": " go",
  "485": "way",
  "486": " le",
  "487": "hed",
  "488": " boy",
  "489": "um",
  "490": "'t",
  "491": "hen",
  "492": "?\"",
  "493": " cl",
  "494": " tree",
  "495": " star",
  "496": " out",
  "497": " gir",
  "498": "ul",
  "499": " loved",
  "500": " have",
  "501": " girl",
  "502": " back",
  "503": " Sue",
  "504": "other",
  "505": "hing",
  "506": " found",
  "507": " looked",
  "508": " sc",
  "509": "my",
  "510": " sp",
  "511": "oug",
  "512": "one",
  "513": " me",
  "514": " park",
  "515": "ong",
  "516": "own",
  "517": " But",
  "518": "round",
  "519": "are",
  "520": "side",
  "521": "omet",
  "522": " would",
  "523": " like",
  "524": " bec",
  "525": "pot",
  "526": " started",
  "527": "elt",
  "528": " fa",
  "529": "ful",
  "530": " la",
  "531": " car",
  "532": " see",
  "533": " felt",
  "534": " liked",
  "535": "ell",
  "536": " ag",
  "537": " say",
  "538": "op",
  "539": " came",
  "540": " somet",
  "541": "ight",
  "542": " Sam",
  "543": "ook",
  "544": " One",
  "545": "ouse",
  "546": " Spot",
  "547": " no",
  "548": " new",
  "549": " small",
  "550": "ia",
  "551": " asked",
  "552": "You",
  "553": "ared",
  "554": "iled",
  "555": "ob",
  "556": "ade",
  "557": " al",
  "558": " good",
  "559": "ice",
  "560": " W",
  "561": "ried",
  "562": "ings",
  "563": " ma",
  "564": " put",
  "565": " smiled",
  "566": " wor",
  "567": "ss",
  "568": "ought",
  "569": " br",
  "570": "est",
  "571": "dd",
  "572": " other",
  "573": " make",
  "574": " made",
  "575": " something",
  "576": " away",
  "577": " what",
  "578": "arn",
  "579": "ened",
  "580": " home",
  "581": " down",
  "582": " from",
  "583": " ex",
  "584": " again",
  "585": " mu",
  "586": " ran",
  "587": " playing",
  "588": " sw",
  "589": " Ben",
  "590": "ish",
  "591": " find",
  "592": "ty",
  "593": " co",
  "594": " wal",
  "595": " J",
  "596": " laug",
  "597": " thought",
  "598": "ile",
  "599": " house",
  "600": " around",
  "601": " fe",
  "602": "uc",
  "603": " every",
  "604": " toys",
  "605": " fl",
  "606": " says",
  "607": " will",
  "608": " took",
  "609": " my",
  "610": " F",
  "611": "ick",
  "612": "if",
  "613": " sun",
  "614": "ret",
  "615": " Mia",
  "616": " ta",
  "617": " learn",
  "618": " when",
  "619": "king",
  "620": " then",
  "621": " scared",
  "622": " lived",
  "623": " box",
  "624": " pu",
  "625": "uck",
  "626": "ny",
  "627": " po",
  "628": " some",
  "629": "ure",
  "630": " your",
  "631": "ump",
  "632": " ch",
  "633": ",\"",
  "634": " know",
  "635": " lot",
  "636": "ie",
  "637": "pped",
  "638": "ach",
  "639": " things",
  "640": " ab",
  "641": "ep",
  "642": " pr",
  "643": " You",
  "644": "ucy",
  "645": "ant",
  "646": "oth",
  "647": "ited",
  "648": " D",
  "649": "ust",
  "650": "Th",
  "651": " tried",
  "652": "oud",
  "653": " got",
  "654": " who",
  "655": "qu",
  "656": "fter",
  "657": " kne",
  "658": " dec",
  "659": " more",
  "660": " get",
  "661": "Tim",
  "662": " int",
  "663": " hug",
  "664": "ge",
  "665": "Lily",
  "666": " any",
  "667": "ble",
  "668": "as",
  "669": "ist",
  "670": "ally",
  "671": " v",
  "672": "au",
  "673": "ara",
  "674": " pe",
  "675": " about",
  "676": " Mom",
  "677": "ite",
  "678": " water",
  "679": " many",
  "680": " Lucy",
  "681": " room",
  "682": " Bob",
  "683": "nder",
  "684": "ave",
  "685": "â",
  "686": " pret",
  "687": "ank",
  "688": "ap",
  "689": " dad",
  "690": " care",
  "691": " exc",
  "692": " red",
  "693": " knew",
  "694": " So",
  "695": "ause",
  "696": " sl",
  "697": " look",
  "698": " E",
  "699": " laughed",
  "700": " pic",
  "701": " learned",
  "702": "fe",
  "703": "ers",
  "704": " op",
  "705": " run",
  "706": " fish",
  "707": "ided",
  "708": " because",
  "709": " eat",
  "710": " told",
  "711": " feel",
  "712": " bl",
  "713": " decided",
  "714": "urp",
  "715": "They",
  "716": " this",
  "717": " sor",
  "718": " jump",
  "719": " gra",
  "720": " became",
  "721": "ink",
  "722": "ive",
  "723": " gre",
  "724": "ous",
  "725": " long",
  "726": " into",
  "727": "udd",
  "728": " one",
  "729": "Tom",
  "730": " outside",
  "731": " And",
  "732": " ho",
  "733": " best",
  "734": "og",
  "735": " excited",
  "736": " ke",
  "737": "Yes",
  "738": " show",
  "739": " both",
  "740": "ace",
  "741": "ess",
  "742": " inside",
  "743": "ise",
  "744": " un",
  "745": " tow",
  "746": "ways",
  "747": " fast",
  "748": " always",
  "749": " bu",
  "750": " ca",
  "751": "iny",
  "752": " sorry",
  "753": "ged",
  "754": " rock",
  "755": " nice",
  "756": " mo",
  "757": " much",
  "758": "our",
  "759": "urpr",
  "760": " str",
  "761": "ised",
  "762": " surpr",
  "763": " old",
  "764": " book",
  "765": " am",
  "766": "But",
  "767": " tur",
  "768": " sk",
  "769": "ven",
  "770": " under",
  "771": " than",
  "772": "lew",
  "773": " didn",
  "774": " cle",
  "775": " pretty",
  "776": " each",
  "777": "sed",
  "778": "ine",
  "779": "by",
  "780": " how",
  "781": " list",
  "782": " gave",
  "783": " clo",
  "784": "gry",
  "785": " hand",
  "786": "Wh",
  "787": "imal",
  "788": " tr",
  "789": " kind",
  "790": " animal",
  "791": " en",
  "792": " stor",
  "793": " or",
  "794": " walked",
  "795": "oll",
  "796": "ion",
  "797": " happened",
  "798": "ase",
  "799": "na",
  "800": "ff",
  "801": "etter",
  "802": " need",
  "803": "ate",
  "804": " just",
  "805": "lor",
  "806": "ft",
  "807": " take",
  "808": " food",
  "809": "here",
  "810": "ving",
  "811": " cake",
  "812": "kes",
  "813": " wat",
  "814": " near",
  "815": " dan",
  "816": "ched",
  "817": " mag",
  "818": " fi",
  "819": " ide",
  "820": " bug",
  "821": " if",
  "822": " its",
  "823": " fly",
  "824": "ople",
  "825": "em",
  "826": " never",
  "827": " clean",
  "828": "ro",
  "829": " idea",
  "830": " animals",
  "831": "rom",
  "832": "eci",
  "833": " people",
  "834": " Sara",
  "835": " try",
  "836": " better",
  "837": " Th",
  "838": "igh",
  "839": " We",
  "840": "ecial",
  "841": " special",
  "842": " sky",
  "843": "ream",
  "844": " Every",
  "845": "more",
  "846": " anymore",
  "847": "\n\n",
  "848": " tw",
  "849": " lots",
  "850": " color",
  "851": "udden",
  "852": " by",
  "853": " His",
  "854": " flow",
  "855": "row",
  "856": " share",
  "857": " flew",
  "858": " doll",
  "859": " turn",
  "860": " surprised",
  "861": " far",
  "862": " door",
  "863": " come",
  "864": " Her",
  "865": " love",
  "866": "uddenly",
  "867": " end",
  "868": "ex",
  "869": "bb",
  "870": " let",
  "871": "uff",
  "872": "Let",
  "873": " shiny",
  "874": " read",
  "875": " hur",
  "876": " careful",
  "877": "Can",
  "878": " clim",
  "879": " qu",
  "880": " pa",
  "881": " magic",
  "882": " climb",
  "883": " bear",
  "884": " after",
  "885": "rm",
  "886": "ort",
  "887": " heard",
  "888": "nna",
  "889": " hugged",
  "890": "Thank",
  "891": " sn",
  "892": "ves",
  "893": "pec",
  "894": " don",
  "895": "ak",
  "896": " picked",
  "897": " kid",
  "898": " even",
  "899": " bad",
  "900": "dy",
  "901": " hat",
  "902": " fam",
  "903": " bro",
  "904": "uffy",
  "905": "pl",
  "906": " listen",
  "907": " app",
  "908": "Mom",
  "909": " tra",
  "910": " still",
  "911": " hard",
  "912": " ground",
  "913": " thanked",
  "914": " loud",
  "915": " kids",
  "916": "ild",
  "917": " P",
  "918": " te",
  "919": " hurt",
  "920": " gl",
  "921": " im",
  "922": "iz",
  "923": "'m",
  "924": " wind",
  "925": " opened",
  "926": " frog",
  "927": " com",
  "928": "lf",
  "929": "illy",
  "930": " ra",
  "931": " ever",
  "932": " Then",
  "933": " In",
  "934": "ger",
  "935": " story",
  "936": "xt",
  "937": "ull",
  "938": "ber",
  "939": " safe",
  "940": " rain",
  "941": " off",
  "942": " next",
  "943": "ool",
  "944": " slide",
  "945": "kay",
  "946": "arden",
  "947": " garden",
  "948": " fore",
  "949": " cry",
  "950": " From",
  "951": " over",
  "952": " jumped",
  "953": "ct",
  "954": " family",
  "955": "sh",
  "956": "pected",
  "957": " high",
  "958": "ummy",
  "959": "lease",
  "960": "expected",
  "961": " while",
  "962": " unexpected",
  "963": "No",
  "964": "It",
  "965": "As",
  "966": " give",
  "967": " way",
  "968": " town",
  "969": " proud",
  "970": "ack",
  "971": " angry",
  "972": " R",
  "973": "luffy",
  "974": "hes",
  "975": " thre",
  "976": " tal",
  "977": " strong",
  "978": " stick",
  "979": " call",
  "980": " unt",
  "981": " should",
  "982": " K",
  "983": "ough",
  "984": "ning",
  "985": "ane",
  "986": " lea",
  "987": " bea",
  "988": "pt",
  "989": " mor",
  "990": " che",
  "991": "uti",
  "992": " until",
  "993": " stay",
  "994": "utiful",
  "995": "ip",
  "996": " smile",
  "997": " hear",
  "998": " happily",
  "999": " beautiful",
  "1000": "be",
  "1001": " now",
  "1002": " When",
  "1003": "ture",
  "1004": " par",
  "1005": "irst",
  "1006": " think",
  "1007": " pond",
  "1008": " great",
  "1009": "itty",
  "1010": "and",
  "1011": " walk",
  "1012": " blue",
  "1013": " Sally",
  "1014": " Let",
  "1015": " soft",
  "1016": " showed",
  "1017": " pain",
  "1018": " imp",
  "1019": " forest",
  "1020": " cu",
  "1021": " Fluffy",
  "1022": " z",
  "1023": " watch",
  "1024": " two",
  "1025": " catch",
  "1026": " met",
  "1027": " has",
  "1028": " flowers",
  "1029": " everyone",
  "1030": " de",
  "1031": "Then",
  "1032": "oy",
  "1033": "He",
  "1034": " cars",
  "1035": " dra",
  "1036": " bre",
  "1037": "dded",
  "1038": " yell",
  "1039": " rem",
  "1040": " pull",
  "1041": " open",
  "1042": "so",
  "1043": "ies",
  "1044": "When",
  "1045": "Now",
  "1046": " ate",
  "1047": " also",
  "1048": "olly",
  "1049": "ma",
  "1050": "air",
  "1051": " fell",
  "1052": "That",
  "1053": " where",
  "1054": " place",
  "1055": " picture",
  "1056": " called",
  "1057": " yummy",
  "1058": " sto",
  "1059": " farm",
  "1060": " apple",
  "1061": "ired",
  "1062": " warm",
  "1063": " sunny",
  "1064": " helped",
  "1065": " green",
  "1066": "ary",
  "1067": "ange",
  "1068": " work",
  "1069": " kept",
  "1070": "Look",
  "1071": " lost",
  "1072": " Kitty",
  "1073": " Anna",
  "1074": "aybe",
  "1075": " yard",
  "1076": " use",
  "1077": " squ",
  "1078": " hands",
  "1079": " first",
  "1080": "th",
  "1081": " store",
  "1082": " mean",
  "1083": "fore",
  "1084": " sat",
  "1085": " agre",
  "1086": "vent",
  "1087": "day",
  "1088": " wr",
  "1089": " nodded",
  "1090": " ad",
  "1091": "unny",
  "1092": "oon",
  "1093": "ished",
  "1094": "eet",
  "1095": " stopped",
  "1096": " sound",
  "1097": " having",
  "1098": " fix",
  "1099": " bed",
  "1100": "led",
  "1101": " used",
  "1102": " keep",
  "1103": " game",
  "1104": " Wh",
  "1105": " Amy",
  "1106": "â",
  "1107": "â",
  "1108": "uit",
  "1109": "leep",
  "1110": " tired",
  "1111": " pat",
  "1112": " noise",
  "1113": " gi",
  "1114": " dif",
  "1115": " before",
  "1116": " Do",
  "1117": "ress",
  "1118": "man",
  "1119": " thing",
  "1120": " swing",
  "1121": " sho",
  "1122": " hole",
  "1123": "After",
  "1124": " bra",
  "1125": "cks",
  "1126": "Hi",
  "1127": " right",
  "1128": " cla",
  "1129": "zz",
  "1130": " worked",
  "1131": " top",
  "1132": " mouse",
  "1133": " colors",
  "1134": " ask",
  "1135": " Jo",
  "1136": " our",
  "1137": "us",
  "1138": "key",
  "1139": "age",
  "1140": "We",
  "1141": " wo",
  "1142": " us",
  "1143": " being",
  "1144": "ollow",
  "1145": " soon",
  "1146": " sing",
  "1147": " okay",
  "1148": " mess",
  "1149": " import",
  "1150": " boat",
  "1151": "ught",
  "1152": "ol",
  "1153": "imes",
  "1154": "ced",
  "1155": " stop",
  "1156": " song",
  "1157": " moral",
  "1158": " head",
  "1159": " birds",
  "1160": " C",
  "1161": "ser",
  "1162": "ken",
  "1163": "fere",
  "1164": "ember",
  "1165": "She",
  "1166": "Sara",
  "1167": " tri",
  "1168": " sand",
  "1169": " real",
  "1170": " lion",
  "1171": " important",
  "1172": " flo",
  "1173": " differe",
  "1174": " duck",
  "1175": "ting",
  "1176": "isy",
  "1177": "ation",
  "1178": "ather",
  "1179": " turned",
  "1180": " mommy",
  "1181": " follow",
  "1182": " ey",
  "1183": " G",
  "1184": "icy",
  "1185": "ied",
  "1186": "gan",
  "1187": " sleep",
  "1188": " mon",
  "1189": " lad",
  "1190": " hun",
  "1191": " going",
  "1192": " face",
  "1193": " cried",
  "1194": " Now",
  "1195": "uch",
  "1196": "stle",
  "1197": " wait",
  "1198": " pick",
  "1199": " fin",
  "1200": " different",
  "1201": "tle",
  "1202": "thing",
  "1203": "self",
  "1204": " worry",
  "1205": " tall",
  "1206": " party",
  "1207": " dr",
  "1208": " â",
  "1209": "ray",
  "1210": " shared",
  "1211": " laugh",
  "1212": " friendly",
  "1213": " forg",
  "1214": " fav",
  "1215": " couldn",
  "1216": " Jane",
  "1217": "â",
  "1218": "ear",
  "1219": " remember",
  "1220": " race",
  "1221": " fruit",
  "1222": "oc",
  "1223": "Ben",
  "1224": "At",
  "1225": " cook",
  "1226": " bright",
  "1227": " agreed",
  "1228": "ox",
  "1229": "oom",
  "1230": " sweet",
  "1231": " kit",
  "1232": " hot",
  "1233": " feeling",
  "1234": "orn",
  "1235": "joy",
  "1236": "ello",
  "1237": "chen",
  "1238": "What",
  "1239": "Sam",
  "1240": "Hello",
  "1241": " smell",
  "1242": " shout",
  "1243": " please",
  "1244": " kitchen",
  "1245": " eyes",
  "1246": " does",
  "1247": " curi",
  "1248": " books",
  "1249": " bag",
  "1250": "orite",
  "1251": "bbit",
  "1252": "Don",
  "1253": " hill",
  "1254": " favorite",
  "1255": " curious",
  "1256": " cold",
  "1257": "owl",
  "1258": "hn",
  "1259": "Max",
  "1260": " yellow",
  "1261": " truck",
  "1262": " tast",
  "1263": " tail",
  "1264": " ru",
  "1265": " This",
  "1266": "ute",
  "1267": " others",
  "1268": " full",
  "1269": " enjoy",
  "1270": " closer",
  "1271": " broken",
  "1272": " brave",
  "1273": " ri",
  "1274": "ign",
  "1275": " threw",
  "1276": " roll",
  "1277": " looking",
  "1278": " jo",
  "1279": "uddy",
  "1280": "aper",
  "1281": " wall",
  "1282": " trees",
  "1283": " swim",
  "1284": " here",
  "1285": " grass",
  "1286": " floor",
  "1287": " draw",
  "1288": " Timmy",
  "1289": "aring",
  "1290": "Wow",
  "1291": " hungry",
  "1292": " din",
  "1293": " beh",
  "1294": " own",
  "1295": "ng",
  "1296": "ely",
  "1297": "eb",
  "1298": "ath",
  "1299": "aisy",
  "1300": " walking",
  "1301": " wet",
  "1302": " table",
  "1303": " ste",
  "1304": " began",
  "1305": " advent",
  "1306": " Mr",
  "1307": "ze",
  "1308": "ix",
  "1309": "Sue",
  "1310": " rea",
  "1311": " All",
  "1312": "pe",
  "1313": "ount",
  "1314": "bye",
  "1315": " rabbit",
  "1316": " quick",
  "1317": " move",
  "1318": " making",
  "1319": " dir",
  "1320": "ike",
  "1321": " wood",
  "1322": " sees",
  "1323": " needed",
  "1324": " hid",
  "1325": " grand",
  "1326": " giant",
  "1327": " gr",
  "1328": " funny",
  "1329": " bunny",
  "1330": " air",
  "1331": " Buddy",
  "1332": " Can",
  "1333": "rel",
  "1334": "Suddenly",
  "1335": "Mia",
  "1336": " sometimes",
  "1337": " pretend",
  "1338": " night",
  "1339": " hop",
  "1340": " grow",
  "1341": " fire",
  "1342": " fair",
  "1343": " Dad",
  "1344": "oice",
  "1345": "ins",
  "1346": " paint",
  "1347": " dance",
  "1348": " bot",
  "1349": "ious",
  "1350": " watched",
  "1351": " talk",
  "1352": " reached",
  "1353": " pus",
  "1354": " paper",
  "1355": " leaves",
  "1356": " build",
  "1357": " another",
  "1358": " That",
  "1359": "der",
  "1360": "ass",
  "1361": " pi",
  "1362": " expl",
  "1363": " bit",
  "1364": " Jack",
  "1365": " As",
  "1366": "cle",
  "1367": "ag",
  "1368": "able",
  "1369": " spl",
  "1370": " mix",
  "1371": " mat",
  "1372": " looks",
  "1373": " alone",
  "1374": "asure",
  "1375": "az",
  "1376": "Why",
  "1377": " voice",
  "1378": " tower",
  "1379": " running",
  "1380": " pulled",
  "1381": " dis",
  "1382": " close",
  "1383": " chair",
  "1384": " castle",
  "1385": " adventure",
  "1386": "where",
  "1387": "ient",
  "1388": " wag",
  "1389": " stuck",
  "1390": " snow",
  "1391": " slow",
  "1392": " ready",
  "1393": " quickly",
  "1394": " plan",
  "1395": " climbed",
  "1396": " cre",
  "1397": " Suddenly",
  "1398": " Momo",
  "1399": " white",
  "1400": " train",
  "1401": " makes",
  "1402": " goodbye",
  "1403": " danced",
  "1404": " brother",
  "1405": " bigger",
  "1406": "ppy",
  "1407": "So",
  "1408": " tell",
  "1409": " silly",
  "1410": " nest",
  "1411": " mis",
  "1412": " hold",
  "1413": " helping",
  "1414": " farmer",
  "1415": " cool",
  "1416": "iced",
  "1417": " waved",
  "1418": " trying",
  "1419": " lady",
  "1420": " ju",
  "1421": " gone",
  "1422": " doing",
  "1423": " clapped",
  "1424": " butter",
  "1425": " blo",
  "1426": "outh",
  "1427": "eddy",
  "1428": " repl",
  "1429": " reach",
  "1430": " prom",
  "1431": " per",
  "1432": " moment",
  "1433": " mouth",
  "1434": " med",
  "1435": " likes",
  "1436": " left",
  "1437": " con",
  "1438": " baby",
  "1439": "ucky",
  "1440": "ton",
  "1441": "ph",
  "1442": "oup",
  "1443": "onely",
  "1444": "ner",
  "1445": "irrel",
  "1446": "ater",
  "1447": "Jo",
  "1448": " why",
  "1449": " squirrel",
  "1450": " monkey",
  "1451": " mail",
  "1452": " listened",
  "1453": " lonely",
  "1454": " join",
  "1455": " gu",
  "1456": " broke",
  "1457": " amaz",
  "1458": "ect",
  "1459": " rest",
  "1460": " glad",
  "1461": " dress",
  "1462": " del",
  "1463": " butterf",
  "1464": " break",
  "1465": " bike",
  "1466": " Daisy",
  "1467": "rough",
  "1468": "bbed",
  "1469": "Oh",
  "1470": " word",
  "1471": " whe",
  "1472": " rel",
  "1473": " mar",
  "1474": " dream",
  "1475": " done",
  "1476": " bel",
  "1477": " Le",
  "1478": " Everyone",
  "1479": "ster",
  "1480": "ord",
  "1481": "os",
  "1482": " waited",
  "1483": " through",
  "1484": " tiny",
  "1485": " pig",
  "1486": " less",
  "1487": " fight",
  "1488": " ele",
  "1489": " child",
  "1490": " behind",
  "1491": " After",
  "1492": "ac",
  "1493": " wants",
  "1494": " thinks",
  "1495": " surprise",
  "1496": " might",
  "1497": " flower",
  "1498": " fre",
  "1499": " dark",
  "1500": "ower",
  "1501": "ash",
  "1502": "This",
  "1503": "Anna",
  "1504": "'re",
  "1505": " set",
  "1506": " only",
  "1507": " land",
  "1508": " job",
  "1509": " forgot",
  "1510": " cra",
  "1511": " bottle",
  "1512": "enny",
  "1513": " shouted",
  "1514": " pictures",
  "1515": " leaf",
  "1516": " dinner",
  "1517": " cream",
  "1518": " anything",
  "1519": " ice",
  "1520": "ub",
  "1521": "ries",
  "1522": "red",
  "1523": "ered",
  "1524": " touch",
  "1525": " pushed",
  "1526": " gent",
  "1527": " butterfly",
  "1528": " arm",
  "1529": " Z",
  "1530": "room",
  "1531": "oney",
  "1532": "lla",
  "1533": " underst",
  "1534": " swam",
  "1535": " shap",
  "1536": " seen",
  "1537": " sec",
  "1538": " replied",
  "1539": " ride",
  "1540": " noticed",
  "1541": " happen",
  "1542": " fall",
  "1543": " dirty",
  "1544": " coming",
  "1545": " cand",
  "1546": " blocks",
  "1547": " balloon",
  "1548": "sk",
  "1549": "izz",
  "1550": "ila",
  "1551": "av",
  "1552": " wonder",
  "1553": " thank",
  "1554": " someone",
  "1555": " perf",
  "1556": " name",
  "1557": " must",
  "1558": " lesson",
  "1559": " fill",
  "1560": " dro",
  "1561": " bor",
  "1562": "Okay",
  "1563": "Her",
  "1564": " won",
  "1565": " three",
  "1566": " spot",
  "1567": " held",
  "1568": " grabbed",
  "1569": " followed",
  "1570": " enjoyed",
  "1571": " ac",
  "1572": " Joe",
  "1573": "une",
  "1574": "eces",
  "1575": "In",
  "1576": " window",
  "1577": " pieces",
  "1578": " light",
  "1579": " faster",
  "1580": " everywhere",
  "1581": " eng",
  "1582": " dolls",
  "1583": " colorful",
  "1584": " cow",
  "1585": " button",
  "1586": " blew",
  "1587": " bath",
  "1588": " There",
  "1589": " Maybe",
  "1590": "up",
  "1591": "mb",
  "1592": "ebook",
  "1593": "Spot",
  "1594": "Do",
  "1595": " wrong",
  "1596": " vis",
  "1597": " stand",
  "1598": " sea",
  "1599": " plant",
  "1600": " pink",
  "1601": " pen",
  "1602": " notebook",
  "1603": " key",
  "1604": " gif",
  "1605": " flying",
  "1606": " brought",
  "1607": " ant",
  "1608": " Soon",
  "1609": " Fin",
  "1610": " Bl",
  "1611": "sy",
  "1612": "pping",
  "1613": "pper",
  "1614": "avy",
  "1615": " woods",
  "1616": " wished",
  "1617": " win",
  "1618": " throw",
  "1619": " stayed",
  "1620": " runs",
  "1621": " rocks",
  "1622": " rob",
  "1623": " puzz",
  "1624": " pet",
  "1625": " lake",
  "1626": " dri",
  "1627": " buy",
  "1628": "sic",
  "1629": "ized",
  "1630": "ddle",
  "1631": "ance",
  "1632": " secret",
  "1633": " sit",
  "1634": " remembered",
  "1635": " puddle",
  "1636": " orange",
  "1637": " music",
  "1638": " hopped",
  "1639": " hair",
  "1640": " creat",
  "1641": " comp",
  "1642": " been",
  "1643": " ar",
  "1644": "rot",
  "1645": "ield",
  "1646": "de",
  "1647": "come",
  "1648": " world",
  "1649": " round",
  "1650": " puzzle",
  "1651": " fis",
  "1652": " engine",
  "1653": " deep",
  "1654": " O",
  "1655": "less",
  "1656": "itten",
  "1657": " sure",
  "1658": " robot",
  "1659": " rec",
  "1660": " promised",
  "1661": " medal",
  "1662": " hit",
  "1663": " gift",
  "1664": " Leo",
  "1665": "iet",
  "1666": "While",
  "1667": "Lucy",
  "1668": " year",
  "1669": " visit",
  "1670": " treat",
  "1671": " talked",
  "1672": " spin",
  "1673": " scream",
  "1674": " really",
  "1675": " quiet",
  "1676": " pol",
  "1677": " grandma",
  "1678": " free",
  "1679": " fairy",
  "1680": " fan",
  "1681": " dry",
  "1682": " Inside",
  "1683": " At",
  "1684": "que",
  "1685": "othes",
  "1686": "itting",
  "1687": "herman",
  "1688": "art",
  "1689": "John",
  "1690": " yog",
  "1691": " prin",
  "1692": " paw",
  "1693": " pot",
  "1694": " king",
  "1695": " juice",
  "1696": " hor",
  "1697": " fur",
  "1698": " fo",
  "1699": " explore",
  "1700": " clothes",
  "1701": " Tommy",
  "1702": "mma",
  "1703": "gle",
  "1704": "ead",
  "1705": "box",
  "1706": "Maybe",
  "1707": " wise",
  "1708": " vill",
  "1709": " today",
  "1710": " tasty",
  "1711": " tight",
  "1712": " start",
  "1713": " shin",
  "1714": " rolled",
  "1715": " rope",
  "1716": " flute",
  "1717": " fisherman",
  "1718": " caught",
  "1719": " asks",
  "1720": " Bobo",
  "1721": "phant",
  "1722": "orm",
  "1723": "ee",
  "1724": "bow",
  "1725": " understand",
  "1726": " turns",
  "1727": " sign",
  "1728": " rainbow",
  "1729": " map",
  "1730": " mine",
  "1731": " hide",
  "1732": " finished",
  "1733": " elephant",
  "1734": " el",
  "1735": " buck",
  "1736": " bite",
  "1737": " What",
  "1738": " Blue",
  "1739": "\n ",
  "1740": "ully",
  "1741": "set",
  "1742": "ost",
  "1743": "ible",
  "1744": "fully",
  "1745": "ctor",
  "1746": "ches",
  "1747": "ards",
  "1748": "\".",
  "1749": " yes",
  "1750": " well",
  "1751": " wings",
  "1752": " swings",
  "1753": " strange",
  "1754": " sharing",
  "1755": " scary",
  "1756": " push",
  "1757": " na",
  "1758": " morning",
  "1759": " huge",
  "1760": " heavy",
  "1761": " else",
  "1762": " bowl",
  "1763": " barn",
  "1764": " To",
  "1765": " owl",
  "1766": "unch",
  "1767": "iss",
  "1768": "cked",
  "1769": " without",
  "1770": " wish",
  "1771": " treasure",
  "1772": " smo",
  "1773": " sitting",
  "1774": " match",
  "1775": " few",
  "1776": " cloud",
  "1777": " bran",
  "1778": " apples",
  "1779": "ross",
  "1780": "ming",
  "1781": "me",
  "1782": "lder",
  "1783": " wra",
  "1784": " stone",
  "1785": " snake",
  "1786": " shapes",
  "1787": " same",
  "1788": " sna",
  "1789": " prune",
  "1790": " perfect",
  "1791": " pie",
  "1792": " nap",
  "1793": " heart",
  "1794": " fit",
  "1795": " drink",
  "1796": " count",
  "1797": " Billy",
  "1798": "umpy",
  "1799": "rayon",
  "1800": "iver",
  "1801": "bble",
  "1802": "From",
  "1803": " wel",
  "1804": " singing",
  "1805": " poin",
  "1806": " leave",
  "1807": " kite",
  "1808": " filled",
  "1809": " crying",
  "1810": " crayon",
  "1811": " corn",
  "1812": " bucket",
  "1813": " Mommy",
  "1814": " John",
  "1815": "oop",
  "1816": "izza",
  "1817": "ilk",
  "1818": "gg",
  "1819": "Bob",
  "1820": "!â",
  "1821": " stories",
  "1822": " smart",
  "1823": " sang",
  "1824": " side",
  "1825": " patient",
  "1826": " pass",
  "1827": " power",
  "1828": " oven",
  "1829": " horse",
  "1830": " egg",
  "1831": " days",
  "1832": " di",
  "1833": " closed",
  "1834": " carefully",
  "1835": " candy",
  "1836": " bugs",
  "1837": " amazing",
  "1838": " able",
  "1839": " Emma",
  "1840": "sket",
  "1841": "pes",
  "1842": "cy",
  "1843": "Just",
  "1844": " welcome",
  "1845": " village",
  "1846": " teddy",
  "1847": " shining",
  "1848": " sis",
  "1849": " purp",
  "1850": " moved",
  "1851": " milk",
  "1852": " mad",
  "1853": " lunch",
  "1854": " kitten",
  "1855": " inc",
  "1856": " cute",
  "1857": " cher",
  "1858": " basket",
  "1859": "rand",
  "1860": "ond",
  "1861": "not",
  "1862": "His",
  "1863": " woke",
  "1864": " sack",
  "1865": " suddenly",
  "1866": " mother",
  "1867": " min",
  "1868": " jet",
  "1869": " glass",
  "1870": " exp",
  "1871": " delic",
  "1872": " carrot",
  "1873": " cannot",
  "1874": " bar",
  "1875": " Molly",
  "1876": "cing",
  "1877": "ames",
  "1878": "Hey",
  "1879": " twins",
  "1880": " tooth",
  "1881": " thin",
  "1882": " smiles",
  "1883": " sister",
  "1884": " shoes",
  "1885": " piece",
  "1886": " nose",
  "1887": " mud",
  "1888": " laughing",
  "1889": " himself",
  "1890": " feels",
  "1891": " enough",
  "1892": " dropped",
  "1893": " cont",
  "1894": " clap",
  "1895": " Lila",
  "1896": " Ella",
  "1897": "vel",
  "1898": "rill",
  "1899": "itter",
  "1900": "ipped",
  "1901": "gerous",
  "1902": "fish",
  "1903": "ench",
  "1904": "atter",
  "1905": "ano",
  "1906": "aur",
  "1907": "ale",
  "1908": " wagged",
  "1909": " turkey",
  "1910": " stre",
  "1911": " spicy",
  "1912": " sounds",
  "1913": " peace",
  "1914": " grumpy",
  "1915": " getting",
  "1916": " games",
  "1917": " father",
  "1918": " eating",
  "1919": " daddy",
  "1920": " cri",
  "1921": " ban",
  "1922": "ughty",
  "1923": "stead",
  "1924": "ourse",
  "1925": "lex",
  "1926": "itch",
  "1927": "fu",
  "1928": "co",
  "1929": ".â",
  "1930": " yoga",
  "1931": " river",
  "1932": " realized",
  "1933": " purple",
  "1934": " pile",
  "1935": " late",
  "1936": " je",
  "1937": " gem",
  "1938": " finally",
  "1939": " fox",
  "1940": " ear",
  "1941": " dangerous",
  "1942": " course",
  "1943": " Ducky",
  "1944": "zy",
  "1945": "unk",
  "1946": "una",
  "1947": "umb",
  "1948": "squ",
  "1949": "ract",
  "1950": "rat",
  "1951": "pa",
  "1952": "ountain",
  "1953": "ned",
  "1954": "ling",
  "1955": "irt",
  "1956": "irr",
  "1957": "ence",
  "1958": "ella",
  "1959": "ere",
  "1960": "ased",
  "1961": " zoom",
  "1962": " words",
  "1963": " scar",
  "1964": " soup",
  "1965": " road",
  "1966": " res",
  "1967": " poem",
  "1968": " pool",
  "1969": " pizza",
  "1970": " pers",
  "1971": " living",
  "1972": " gentle",
  "1973": " field",
  "1974": " ducks",
  "1975": " dogs",
  "1976": " cup",
  "1977": " cut",
  "1978": " boss",
  "1979": " bench",
  "1980": " Sarah",
  "1981": "thy",
  "1982": "squit",
  "1983": "squito",
  "1984": "oun",
  "1985": "ircle",
  "1986": "ined",
  "1987": "ina",
  "1988": "ieve",
  "1989": "ey",
  "1990": "eared",
  "1991": "ces",
  "1992": "arent",
  "1993": "adow",
  "1994": "af",
  "1995": "Sally",
  "1996": "Of",
  "1997": "Good",
  "1998": " wheel",
  "1999": " wheat",
  "2000": " wear",
  "2001": " trou",
  "2002": " stu",
  "2003": " snowman",
  "2004": " smelly",
  "2005": " scarf",
  "2006": " neigh",
  "2007": " mosquito",
  "2008": " magical",
  "2009": " joy",
  "2010": " inv",
  "2011": " fil",
  "2012": " fake",
  "2013": " deer",
  "2014": " bossy",
  "2015": " bell",
  "2016": " beach",
  "2017": " Thank",
  "2018": "urse",
  "2019": "ued",
  "2020": "ren",
  "2021": "rob",
  "2022": "ourn",
  "2023": "ocked",
  "2024": "let",
  "2025": "ier",
  "2026": "eter",
  "2027": "cess",
  "2028": "bo",
  "2029": "arp",
  "2030": "amp",
  "2031": "Fin",
  "2032": "'ll",
  "2033": " tries",
  "2034": " teach",
  "2035": " taking",
  "2036": " shook",
  "2037": " sharp",
  "2038": " past",
  "2039": " pin",
  "2040": " parent",
  "2041": " landed",
  "2042": " journ",
  "2043": " jam",
  "2044": " hiding",
  "2045": " ea",
  "2046": " drag",
  "2047": " doctor",
  "2048": " des",
  "2049": " contin",
  "2050": " clock",
  "2051": " chew",
  "2052": " bathrob",
  "2053": " -",
  "2054": "unt",
  "2055": "to",
  "2056": "oof",
  "2057": "isk",
  "2058": "fused",
  "2059": "amond",
  "2060": " years",
  "2061": " worried",
  "2062": " upset",
  "2063": " trip",
  "2064": " street",
  "2065": " stret",
  "2066": " slid",
  "2067": " such",
  "2068": " owner",
  "2069": " neighb",
  "2070": " mum",
  "2071": " last",
  "2072": " jar",
  "2073": " hats",
  "2074": " grew",
  "2075": " feed",
  "2076": " everything",
  "2077": " dragon",
  "2078": " diamond",
  "2079": " decor",
  "2080": " cookie",
  "2081": " cover",
  "2082": " belong",
  "2083": " bake",
  "2084": " Please",
  "2085": " Bella",
  "2086": "rew",
  "2087": "ors",
  "2088": "ove",
  "2089": "les",
  "2090": "ize",
  "2091": "cket",
  "2092": "alm",
  "2093": "Please",
  "2094": "OK",
  "2095": "Mommy",
  "2096": " vase",
  "2097": " trump",
  "2098": " takes",
  "2099": " storm",
  "2100": " stri",
  "2101": " splas",
  "2102": " snee",
  "2103": " seem",
  "2104": " roar",
  "2105": " puts",
  "2106": " naughty",
  "2107": " most",
  "2108": " measure",
  "2109": " money",
  "2110": " live",
  "2111": " ladder",
  "2112": " knocked",
  "2113": " holding",
  "2114": " honey",
  "2115": " goes",
  "2116": " faces",
  "2117": " eas",
  "2118": " driver",
  "2119": " dig",
  "2120": " continued",
  "2121": " coin",
  "2122": " children",
  "2123": " brown",
  "2124": " bathrobe",
  "2125": " bark",
  "2126": " ign",
  "2127": "sw",
  "2128": "pet",
  "2129": "iskers",
  "2130": "isa",
  "2131": "iling",
  "2132": "ire",
  "2133": "ich",
  "2134": "erri",
  "2135": "chool",
  "2136": "ama",
  "2137": "St",
  "2138": "Finally",
  "2139": " zip",
  "2140": " write",
  "2141": " wand",
  "2142": " trumpet",
  "2143": " sold",
  "2144": " pre",
  "2145": " onto",
  "2146": " nothing",
  "2147": " note",
  "2148": " nod",
  "2149": " monster",
  "2150": " meet",
  "2151": " leg",
  "2152": " jog",
  "2153": " hope",
  "2154": " herself",
  "2155": " hig",
  "2156": " fixed",
  "2157": " crib",
  "2158": " comes",
  "2159": " carpet",
  "2160": " boot",
  "2161": " believe",
  "2162": " banan",
  "2163": " answ",
  "2164": " Tr",
  "2165": " Bobby",
  "2166": " Be",
  "2167": " ve",
  "2168": " ent",
  "2169": "thday",
  "2170": "sp",
  "2171": "osaur",
  "2172": "ose",
  "2173": "net",
  "2174": "mor",
  "2175": "irthday",
  "2176": "ieved",
  "2177": "icken",
  "2178": "iant",
  "2179": "ese",
  "2180": "emy",
  "2181": "amed",
  "2182": "Soon",
  "2183": " yelled",
  "2184": " true",
  "2185": " terri",
  "2186": " sword",
  "2187": " sheep",
  "2188": " sear",
  "2189": " sel",
  "2190": " person",
  "2191": " path",
  "2192": " ob",
  "2193": " nation",
  "2194": " mixer",
  "2195": " mailbox",
  "2196": " lucky",
  "2197": " hon",
  "2198": " grab",
  "2199": " forget",
  "2200": " feather",
  "2201": " delicious",
  "2202": " cleaned",
  "2203": " chicken",
  "2204": " black",
  "2205": " bee",
  "2206": " ash",
  "2207": " Man",
  "2208": " Ch",
  "2209": " On",
  "2210": "ugg",
  "2211": "ses",
  "2212": "lderly",
  "2213": "iting",
  "2214": "epend",
  "2215": "den",
  "2216": "althy",
  "2217": "azz",
  "2218": "Be",
  "2219": " tea",
  "2220": " square",
  "2221": " smooth",
  "2222": " smelled",
  "2223": " shr",
  "2224": " selfish",
  "2225": " sour",
  "2226": " school",
  "2227": " rat",
  "2228": " pepper",
  "2229": " missed",
  "2230": " mist",
  "2231": " life",
  "2232": " instead",
  "2233": " imag",
  "2234": " higher",
  "2235": " hidden",
  "2236": " helpful",
  "2237": " hoop",
  "2238": " film",
  "2239": " fighting",
  "2240": " elderly",
  "2241": " dead",
  "2242": " dancing",
  "2243": " confused",
  "2244": " circle",
  "2245": " calm",
  "2246": " building",
  "2247": " bubble",
  "2248": " branch",
  "2249": " boring",
  "2250": " beak",
  "2251": " bal",
  "2252": " Whiskers",
  "2253": " Bunny",
  "2254": " '",
  "2255": "wber",
  "2256": "uts",
  "2257": "upp",
  "2258": "rilliant",
  "2259": "rawber",
  "2260": "oble",
  "2261": "oblem",
  "2262": "ock",
  "2263": "morrow",
  "2264": "irror",
  "2265": "irit",
  "2266": "ebra",
  "2267": "cc",
  "2268": "cap",
  "2269": "board",
  "2270": "ator",
  "2271": "Molly",
  "2272": "Amy",
  "2273": " zebra",
  "2274": " turtle",
  "2275": " towards",
  "2276": " tomorrow",
  "2277": " terrible",
  "2278": " talking",
  "2279": " shop",
  "2280": " supp",
  "2281": " rude",
  "2282": " problem",
  "2283": " plate",
  "2284": " part",
  "2285": " press",
  "2286": " pop",
  "2287": " ph",
  "2288": " net",
  "2289": " myster",
  "2290": " miss",
  "2291": " mot",
  "2292": " mirror",
  "2293": " lovely",
  "2294": " letter",
  "2295": " hugs",
  "2296": " gently",
  "2297": " feet",
  "2298": " easy",
  "2299": " club",
  "2300": " cheese",
  "2301": " chased",
  "2302": " careless",
  "2303": " carry",
  "2304": " cou",
  "2305": " bread",
  "2306": " brilliant",
  "2307": " bitter",
  "2308": " birthday",
  "2309": " att",
  "2310": " appeared",
  "2311": " ang",
  "2312": " With",
  "2313": " Penny",
  "2314": " Jen",
  "2315": " Don",
  "2316": " icy",
  "2317": "oman",
  "2318": "ises",
  "2319": "gy",
  "2320": "gly",
  "2321": "erest",
  "2322": "My",
  "2323": " wondered",
  "2324": " whole",
  "2325": " waiting",
  "2326": " war",
  "2327": " woman",
  "2328": " string",
  "2329": " spirit",
  "2330": " snack",
  "2331": " sleepy",
  "2332": " shirt",
  "2333": " shake",
  "2334": " screamed",
  "2335": " relieved",
  "2336": " record",
  "2337": " rag",
  "2338": " rad",
  "2339": " police",
  "2340": " plane",
  "2341": " peaceful",
  "2342": " pract",
  "2343": " moms",
  "2344": " magnet",
  "2345": " incred",
  "2346": " guard",
  "2347": " forever",
  "2348": " explain",
  "2349": " eager",
  "2350": " dinosaur",
  "2351": " creative",
  "2352": " cookies",
  "2353": " change",
  "2354": " cage",
  "2355": " bush",
  "2356": " bring",
  "2357": " bow",
  "2358": " boun",
  "2359": " arms",
  "2360": " arri",
  "2361": " angel",
  "2362": " amazed",
  "2363": " adventures",
  "2364": " act",
  "2365": " Remy",
  "2366": " If",
  "2367": " Grand",
  "2368": "usie",
  "2369": "pect",
  "2370": "olate",
  "2371": "ocolate",
  "2372": "mer",
  "2373": "llie",
  "2374": "ity",
  "2375": "icycle",
  "2376": "erv",
  "2377": "cape",
  "2378": "Tommy",
  "2379": "Later",
  "2380": "Jack",
  "2381": "?â",
  "2382": " track",
  "2383": " swimming",
  "2384": " stars",
  "2385": " splashed",
  "2386": " split",
  "2387": " spr",
  "2388": " spo",
  "2389": " shoe",
  "2390": " scatter",
  "2391": " rise",
  "2392": " rare",
  "2393": " pup",
  "2394": " pointed",
  "2395": " parents",
  "2396": " neck",
  "2397": " nurse",
  "2398": " maze",
  "2399": " longer",
  "2400": " interest",
  "2401": " incredible",
  "2402": " ignor",
  "2403": " half",
  "2404": " grapes",
  "2405": " explor",
  "2406": " dirt",
  "2407": " dest",
  "2408": " corner",
  "2409": " clouds",
  "2410": " class",
  "2411": " cloth",
  "2412": " chocolate",
  "2413": " busy",
  "2414": " balance",
  "2415": " bicycle",
  "2416": " asking",
  "2417": " across",
  "2418": "uzz",
  "2419": "pill",
  "2420": "pillar",
  "2421": "oby",
  "2422": "met",
  "2423": "lower",
  "2424": "irp",
  "2425": "ilty",
  "2426": "eth",
  "2427": "estion",
  "2428": "ervous",
  "2429": "erry",
  "2430": "erpillar",
  "2431": "elp",
  "2432": "ever",
  "2433": "ats",
  "2434": "anket",
  "2435": "anger",
  "2436": "Dad",
  "2437": " yarn",
  "2438": " wrap",
  "2439": " worm",
  "2440": " wonderful",
  "2441": " watching",
  "2442": " wis",
  "2443": " taste",
  "2444": " tap",
  "2445": " tied",
  "2446": " steak",
  "2447": " stream",
  "2448": " stood",
  "2449": " splash",
  "2450": " spe",
  "2451": " soap",
  "2452": " slowly",
  "2453": " slipped",
  "2454": " shell",
  "2455": " shelf",
  "2456": " sal",
  "2457": " suc",
  "2458": " sil",
  "2459": " rose",
  "2460": " rich",
  "2461": " rot",
  "2462": " roof",
  "2463": " question",
  "2464": " pole",
  "2465": " pun",
  "2466": " pow",
  "2467": " nervous",
  "2468": " mule",
  "2469": " meat",
  "2470": " march",
  "2471": " mama",
  "2472": " loop",
  "2473": " loves",
  "2474": " knee",
  "2475": " hoped",
  "2476": " honest",
  "2477": " helmet",
  "2478": " hears",
  "2479": " horn",
  "2480": " guilty",
  "2481": " gets",
  "2482": " forgive",
  "2483": " fancy",
  "2484": " fool",
  "2485": " dull",
  "2486": " drew",
  "2487": " comf",
  "2488": " cherries",
  "2489": " cheered",
  "2490": " cheer",
  "2491": " caterpillar",
  "2492": " cact",
  "2493": " card",
  "2494": " blanket",
  "2495": " barked",
  "2496": " ashamed",
  "2497": " anyone",
  "2498": " Why",
  "2499": " Polly",
  "2500": " Finally",
  "2501": " Bird",
  "2502": " es",
  "2503": "weet",
  "2504": "urch",
  "2505": "upid",
  "2506": "ular",
  "2507": "ually",
  "2508": "ual",
  "2509": "roy",
  "2510": "read",
  "2511": "nn",
  "2512": "most",
  "2513": "ipe",
  "2514": "imi",
  "2515": "essie",
  "2516": "eros",
  "2517": "era",
  "2518": "br",
  "2519": "assion",
  "2520": "airs",
  "2521": "affe",
  "2522": "akes",
  "2523": "Who",
  "2524": "Stop",
  "2525": "Lila",
  "2526": "Help",
  "2527": " zoo",
  "2528": " wearing",
  "2529": " wore",
  "2530": " wide",
  "2531": " trouble",
  "2532": " touc",
  "2533": " tear",
  "2534": " stretch",
  "2535": " stranger",
  "2536": " stupid",
  "2537": " stir",
  "2538": " spring",
  "2539": " sort",
  "2540": " shy",
  "2541": " shark",
  "2542": " seek",
  "2543": " relax",
  "2544": " rough",
  "2545": " rid",
  "2546": " prince",
  "2547": " powerful",
  "2548": " paws",
  "2549": " patch",
  "2550": " moving",
  "2551": " mark",
  "2552": " lose",
  "2553": " lay",
  "2554": " journey",
  "2555": " interesting",
  "2556": " ink",
  "2557": " har",
  "2558": " gold",
  "2559": " giraffe",
  "2560": " fountain",
  "2561": " destroy",
  "2562": " decorate",
  "2563": " creature",
  "2564": " compassion",
  "2565": " clear",
  "2566": " church",
  "2567": " cane",
  "2568": " cactus",
  "2569": " cr",
  "2570": " bus",
  "2571": " bur",
  "2572": " almost",
  "2573": " Together",
  "2574": " Somet",
  "2575": " Some",
  "2576": " Mary",
  "2577": " Lisa",
  "2578": " Just",
  "2579": " Fred",
  "2580": "yard",
  "2581": "usual",
  "2582": "ume",
  "2583": "stal",
  "2584": "oomy",
  "2585": "oceros",
  "2586": "ment",
  "2587": "llo",
  "2588": "inoceros",
  "2589": "illow",
  "2590": "ippy",
  "2591": "ian",
  "2592": "hip",
  "2593": "hinoceros",
  "2594": "ert",
  "2595": "ates",
  "2596": "arge",
  "2597": "app",
  "2598": " wagon",
  "2599": " wave",
  "2600": " wild",
  "2601": " val",
  "2602": " useful",
  "2603": " unusual",
  "2604": " ugly",
  "2605": " treats",
  "2606": " touched",
  "2607": " teac",
  "2608": " stepped",
  "2609": " spotted",
  "2610": " spray",
  "2611": " songs",
  "2612": " soldier",
  "2613": " sol",
  "2614": " shoot",
  "2615": " seed",
  "2616": " sick",
  "2617": " ser",
  "2618": " rhinoceros",
  "2619": " poor",
  "2620": " pocket",
  "2621": " piano",
  "2622": " pri",
  "2623": " pir",
  "2624": " pillow",
  "2625": " pan",
  "2626": " noises",
  "2627": " neighbor",
  "2628": " nearby",
  "2629": " motor",
  "2630": " messy",
  "2631": " mop",
  "2632": " large",
  "2633": " grape",
  "2634": " gloomy",
  "2635": " friendship",
  "2636": " foolish",
  "2637": " flame",
  "2638": " drove",
  "2639": " disco",
  "2640": " disapp",
  "2641": " dust",
  "2642": " dug",
  "2643": " crystal",
  "2644": " compassionate",
  "2645": " chan",
  "2646": " cats",
  "2647": " carried",
  "2648": " comet",
  "2649": " breath",
  "2650": " bored",
  "2651": " banana",
  "2652": " backyard",
  "2653": " add",
  "2654": " Zoom",
  "2655": " True",
  "2656": " Tiny",
  "2657": " Ru",
  "2658": " Go",
  "2659": " Dolly",
  "2660": "vator",
  "2661": "umber",
  "2662": "ult",
  "2663": "stic",
  "2664": "rawberry",
  "2665": "par",
  "2666": "parate",
  "2667": "ness",
  "2668": "lexible",
  "2669": "ict",
  "2670": "iv",
  "2671": "ique",
  "2672": "host",
  "2673": "erce",
  "2674": "erable",
  "2675": "celet",
  "2676": "case",
  "2677": "aces",
  "2678": "Kitty",
  "2679": "Joe",
  "2680": "How",
  "2681": " working",
  "2682": " wasn",
  "2683": " veil",
  "2684": " unique",
  "2685": " thankful",
  "2686": " teacher",
  "2687": " tele",
  "2688": " switch",
  "2689": " spark",
  "2690": " shadow",
  "2691": " separate",
  "2692": " scale",
  "2693": " sandbox",
  "2694": " rub",
  "2695": " rocket",
  "2696": " respect",
  "2697": " powder",
  "2698": " polite",
  "2699": " plants",
  "2700": " places",
  "2701": " painted",
  "2702": " nuts",
  "2703": " mysterious",
  "2704": " miserable",
  "2705": " mint",
  "2706": " matter",
  "2707": " lock",
  "2708": " lives",
  "2709": " kiss",
  "2710": " kick",
  "2711": " impress",
  "2712": " hello",
  "2713": " guess",
  "2714": " gives",
  "2715": " gun",
  "2716": " ghost",
  "2717": " foot",
  "2718": " fierce",
  "2719": " flexible",
  "2720": " fing",
  "2721": " exploring",
  "2722": " elevator",
  "2723": " decide",
  "2724": " crayons",
  "2725": " couch",
  "2726": " bracelet",
  "2727": " bookcase",
  "2728": " behave",
  "2729": " become",
  "2730": " balloons",
  "2731": " arrived",
  "2732": " answer",
  "2733": " aunt",
  "2734": " Tweet",
  "2735": " TV",
  "2736": " Susie",
  "2737": " Many",
  "2738": " Luna",
  "2739": " Jenny",
  "2740": " Jake",
  "2741": " How",
  "2742": " ind",
  "2743": " No",
  "2744": "umsy",
  "2745": "ulu",
  "2746": "tern",
  "2747": "ssed",
  "2748": "shine",
  "2749": "pty",
  "2750": "ple",
  "2751": "otter",
  "2752": "oli",
  "2753": "oppy",
  "2754": "nown",
  "2755": "mbre",
  "2756": "mbar",
  "2757": "mbarra",
  "2758": "mpty",
  "2759": "known",
  "2760": "issors",
  "2761": "io",
  "2762": "ib",
  "2763": "ete",
  "2764": "ery",
  "2765": "eze",
  "2766": "ccoli",
  "2767": "ateful",
  "2768": "alk",
  "2769": "ail",
  "2770": " zi",
  "2771": " wouldn",
  "2772": " whale",
  "2773": " unknown",
  "2774": " umbre",
  "2775": " teeth",
  "2776": " taught",
  "2777": " sunshine",
  "2778": " smoke",
  "2779": " shut",
  "2780": " seemed",
  "2781": " searched",
  "2782": " sell",
  "2783": " scre",
  "2784": " sco",
  "2785": " scissors",
  "2786": " sandw",
  "2787": " salad",
  "2788": " saved",
  "2789": " sail",
  "2790": " ranch",
  "2791": " radio",
  "2792": " promise",
  "2793": " pressed",
  "2794": " picks",
  "2795": " pattern",
  "2796": " pack",
  "2797": " ped",
  "2798": " mov",
  "2799": " mixed",
  "2800": " leather",
  "2801": " lean",
  "2802": " line",
  "2803": " lamp",
  "2804": " itself",
  "2805": " itch",
  "2806": " hose",
  "2807": " group",
  "2808": " grateful",
  "2809": " gather",
  "2810": " frame",
  "2811": " flag",
  "2812": " fence",
  "2813": " escape",
  "2814": " empty",
  "2815": " embarra",
  "2816": " drank",
  "2817": " dist",
  "2818": " clumsy",
  "2819": " clay",
  "2820": " cherry",
  "2821": " ce",
  "2822": " broccoli",
  "2823": " branches",
  "2824": " band",
  "2825": " bone",
  "2826": " adm",
  "2827": " af",
  "2828": " Their",
  "2829": " Sometimes",
  "2830": " St",
  "2831": " Rina",
  "2832": " Ollie",
  "2833": " Mimi",
  "2834": " Jim",
  "2835": " Jill",
  "2836": " Dan",
  "2837": " Come",
  "2838": " Buzz",
  "2839": " Ann",
  "2840": " otter",
  "2841": "ventually",
  "2842": "utom",
  "2843": "utomob",
  "2844": "utomobile",
  "2845": "utes",
  "2846": "ungle",
  "2847": "tur",
  "2848": "tom",
  "2849": "rated",
  "2850": "ork",
  "2851": "olc",
  "2852": "olcano",
  "2853": "lves",
  "2854": "lass",
  "2855": "lasses",
  "2856": "izzy",
  "2857": "inal",
  "2858": "iginal",
  "2859": "iger",
  "2860": "igent",
  "2861": "iff",
  "2862": "ident",
  "2863": "iable",
  "2864": "htray",
  "2865": "glasses",
  "2866": "ging",
  "2867": "ependent",
  "2868": "elligent",
  "2869": "elery",
  "2870": "angle",
  "2871": "aff",
  "2872": "Sarah",
  "2873": "Fluffy",
  "2874": " wrapped",
  "2875": " weak",
  "2876": " wash",
  "2877": " wake",
  "2878": " volcano",
  "2879": " umbrella",
  "2880": " trap",
  "2881": " towel",
  "2882": " thirst",
  "2883": " team",
  "2884": " tem",
  "2885": " sunglasses",
  "2886": " success",
  "2887": " stronger",
  "2888": " stripes",
  "2889": " sticks",
  "2890": " sport",
  "2891": " sneeze",
  "2892": " shape",
  "2893": " screen",
  "2894": " sailed",
  "2895": " retur",
  "2896": " reg",
  "2897": " puppy",
  "2898": " post",
  "2899": " poked",
  "2900": " player",
  "2901": " pedal",
  "2902": " pear",
  "2903": " pay",
  "2904": " original",
  "2905": " order",
  "2906": " opens",
  "2907": " noisy",
  "2908": " mistake",
  "2909": " minutes",
  "2910": " makeup",
  "2911": " maybe",
  "2912": " libr",
  "2913": " later",
  "2914": " jumping",
  "2915": " junk",
  "2916": " jungle",
  "2917": " invited",
  "2918": " intelligent",
  "2919": " independent",
  "2920": " hang",
  "2921": " ham",
  "2922": " hum",
  "2923": " grandpa",
  "2924": " gig",
  "2925": " gear",
  "2926": " forth",
  "2927": " folder",
  "2928": " finding",
  "2929": " fig",
  "2930": " fest",
  "2931": " earth",
  "2932": " drop",
  "2933": " dizzy",
  "2934": " crack",
  "2935": " cost",
  "2936": " clever",
  "2937": " cross",
  "2938": " coo",
  "2939": " celery",
  "2940": " bottom",
  "2941": " balls",
  "2942": " ashtray",
  "2943": " automobile",
  "2944": " Teddy",
  "2945": " Pete",
  "2946": " Lulu",
  "2947": " Liz",
  "2948": " Andy",
  "2949": " Alex",
  "2950": "umbled",
  "2951": "ulif",
  "2952": "uliflower",
  "2953": "stless",
  "2954": "spit",
  "2955": "spital",
  "2956": "seum",
  "2957": "raid",
  "2958": "ouses",
  "2959": "oph",
  "2960": "lock",
  "2961": "ival",
  "2962": "issed",
  "2963": "irpy",
  "2964": "arl",
  "2965": "aking",
  "2966": "Timmy",
  "2967": "Sure",
  "2968": "Come",
  "2969": " young",
  "2970": " yield",
  "2971": " trash",
  "2972": " trust",
  "2973": " thirsty",
  "2974": " temple",
  "2975": " tasted",
  "2976": " task",
  "2977": " tag",
  "2978": " tie",
  "2979": " station",
  "2980": " squash",
  "2981": " smaller",
  "2982": " shine",
  "2983": " save",
  "2984": " send",
  "2985": " ruined",
  "2986": " reliable",
  "2987": " restless",
  "2988": " princess",
  "2989": " prize",
  "2990": " pigs",
  "2991": " phone",
  "2992": " organ",
  "2993": " notice",
  "2994": " nods",
  "2995": " museum",
  "2996": " mod",
  "2997": " marry",
  "2998": " mummy",
  "2999": " lights",
  "3000": " library",
  "3001": " lip",
  "3002": " legs",
  "3003": " lead",
  "3004": " law",
  "3005": " lab",
  "3006": " knowing",
  "3007": " kissed",
  "3008": " ignorant",
  "3009": " hospital",
  "3010": " hero",
  "3011": " harder",
  "3012": " hammer",
  "3013": " houses",
  "3014": " gate",
  "3015": " finish",
  "3016": " festival",
  "3017": " feathers",
  "3018": " fat",
  "3019": " explained",
  "3020": " exciting",
  "3021": " embarrassed",
  "3022": " discover",
  "3023": " deliver",
  "3024": " cows",
  "3025": " covered",
  "3026": " coll",
  "3027": " coat",
  "3028": " char",
  "3029": " cart",
  "3030": " cauliflower",
  "3031": " cries",
  "3032": " body",
  "3033": " bought",
  "3034": " bat",
  "3035": " afraid",
  "3036": " acc",
  "3037": " Zara",
  "3038": " Today",
  "3039": " My",
  "3040": " Jerry",
  "3041": " Daddy",
  "3042": " N",
  "3043": "wel",
  "3044": "ustrated",
  "3045": "ung",
  "3046": "ulb",
  "3047": "ugh",
  "3048": "selves",
  "3049": "queen",
  "3050": "ours",
  "3051": "ogn",
  "3052": "mon",
  "3053": "ky",
  "3054": "kin",
  "3055": "ionary",
  "3056": "inking",
  "3057": "iness",
  "3058": "ilot",
  "3059": "idge",
  "3060": "ictionary",
  "3061": "icine",
  "3062": "helf",
  "3063": "gust",
  "3064": "ground",
  "3065": "eras",
  "3066": "eraser",
  "3067": "ek",
  "3068": "ated",
  "3069": "amera",
  "3070": "Me",
  "3071": "Grand",
  "3072": "Every",
  "3073": "Daisy",
  "3074": "Billy",
  "3075": " whist",
  "3076": " weep",
  "3077": " wing",
  "3078": " value",
  "3079": " vi",
  "3080": " tough",
  "3081": " times",
  "3082": " study",
  "3083": " stops",
  "3084": " steal",
  "3085": " standing",
  "3086": " scrat",
  "3087": " rode",
  "3088": " remind",
  "3089": " recogn",
  "3090": " reading",
  "3091": " rep",
  "3092": " raced",
  "3093": " ring",
  "3094": " planet",
  "3095": " pasta",
  "3096": " passed",
  "3097": " pour",
  "3098": " movie",
  "3099": " mighty",
  "3100": " medicine",
  "3101": " meant",
  "3102": " meadow",
  "3103": " mill",
  "3104": " lotion",
  "3105": " lemon",
  "3106": " juicy",
  "3107": " joined",
  "3108": " jewel",
  "3109": " jolly",
  "3110": " hung",
  "3111": " helpless",
  "3112": " healthy",
  "3113": " hairy",
  "3114": " glow",
  "3115": " gray",
  "3116": " furry",
  "3117": " fright",
  "3118": " fear",
  "3119": " excite",
  "3120": " drive",
  "3121": " disgust",
  "3122": " desk",
  "3123": " dictionary",
  "3124": " craw",
  "3125": " cooked",
  "3126": " comfort",
  "3127": " coins",
  "3128": " cleaning",
  "3129": " cheerful",
  "3130": " charming",
  "3131": " changed",
  "3132": " carrots",
  "3133": " cave",
  "3134": " camera",
  "3135": " bubbles",
  "3136": " bull",
  "3137": " bookshelf",
  "3138": " bald",
  "3139": " bulb",
  "3140": " arrow",
  "3141": " appl",
  "3142": " alert",
  "3143": " accident",
  "3144": " av",
  "3145": " Toby",
  "3146": " Sn",
  "3147": " Poppy",
  "3148": " Chirpy",
  "3149": " Bill",
  "3150": " queen",
  "3151": " eraser",
  "3152": "zed",
  "3153": "ying",
  "3154": "usia",
  "3155": "usiastic",
  "3156": "urt",
  "3157": "uring",
  "3158": "ured",
  "3159": "uitar",
  "3160": "ubby",
  "3161": "sect",
  "3162": "rag",
  "3163": "ragile",
  "3164": "ppers",
  "3165": "owman",
  "3166": "ote",
  "3167": "ormal",
  "3168": "orry",
  "3169": "omes",
  "3170": "olin",
  "3171": "lly",
  "3172": "lept",
  "3173": "isp",
  "3174": "iron",
  "3175": "inky",
  "3176": "icked",
  "3177": "husiastic",
  "3178": "gled",
  "3179": "fted",
  "3180": "enu",
  "3181": "ena",
  "3182": "dle",
  "3183": "dge",
  "3184": "ctory",
  "3185": "chair",
  "3186": "cil",
  "3187": "bled",
  "3188": "aud",
  "3189": "atue",
  "3190": "ast",
  "3191": "aged",
  "3192": "Where",
  "3193": "Sorry",
  "3194": "Mum",
  "3195": "Jane",
  "3196": "Here",
  "3197": " wrote",
  "3198": " wishes",
  "3199": " whisp",
  "3200": " walls",
  "3201": " waff",
  "3202": " wine",
  "3203": " violin",
  "3204": " understood",
  "3205": " triangle",
  "3206": " trade",
  "3207": " tells",
  "3208": " stumbled",
  "3209": " strawberry",
  "3210": " step",
  "3211": " statue",
  "3212": " spinning",
  "3213": " spill",
  "3214": " snacks",
  "3215": " smiling",
  "3216": " silver",
  "3217": " showing",
  "3218": " sheet",
  "3219": " seeds",
  "3220": " saf",
  "3221": " sur",
  "3222": " sque",
  "3223": " slept",
  "3224": " size",
  "3225": " sink",
  "3226": " riding",
  "3227": " raven",
  "3228": " pretended",
  "3229": " pro",
  "3230": " point",
  "3231": " pencil",
  "3232": " parrot",
  "3233": " painting",
  "3234": " painter",
  "3235": " pump",
  "3236": " office",
  "3237": " ok",
  "3238": " nail",
  "3239": " normal",
  "3240": " modest",
  "3241": " meas",
  "3242": " market",
  "3243": " managed",
  "3244": " mountain",
  "3245": " menu",
  "3246": " lively",
  "3247": " licks",
  "3248": " letters",
  "3249": " leash",
  "3250": " lazy",
  "3251": " lying",
  "3252": " kicked",
  "3253": " jumps",
  "3254": " insect",
  "3255": " hopping",
  "3256": " happiness",
  "3257": " growing",
  "3258": " guitar",
  "3259": " gen",
  "3260": " frightened",
  "3261": " frustrated",
  "3262": " fold",
  "3263": " finger",
  "3264": " figure",
  "3265": " famous",
  "3266": " factory",
  "3267": " fragile",
  "3268": " four",
  "3269": " fine",
  "3270": " enthusiastic",
  "3271": " ending",
  "3272": " env",
  "3273": " disgusting",
  "3274": " dish",
  "3275": " costume",
  "3276": " chubby",
  "3277": " chalk",
  "3278": " ceiling",
  "3279": " bounce",
  "3280": " blow",
  "3281": " bedroom",
  "3282": " armchair",
  "3283": " applaud",
  "3284": " ants",
  "3285": " along",
  "3286": " agree",
  "3287": " added",
  "3288": " Snowman",
  "3289": " Ol",
  "3290": " Mark",
  "3291": " Jazz",
  "3292": " Grandma",
  "3293": " Fr",
  "3294": "ward",
  "3295": "velop",
  "3296": "uter",
  "3297": "ulie",
  "3298": "ten",
  "3299": "rage",
  "3300": "port",
  "3301": "owed",
  "3302": "ouple",
  "3303": "ont",
  "3304": "ones",
  "3305": "nic",
  "3306": "low",
  "3307": "ler",
  "3308": "ilt",
  "3309": "ighed",
  "3310": "iddle",
  "3311": "hew",
  "3312": "ext",
  "3313": "etle",
  "3314": "erous",
  "3315": "els",
  "3316": "edient",
  "3317": "eady",
  "3318": "cycle",
  "3319": "coa",
  "3320": "corn",
  "3321": "bbon",
  "3322": "bin",
  "3323": "ations",
  "3324": "ason",
  "3325": "andy",
  "3326": "ache",
  "3327": "aver",
  "3328": "Their",
  "3329": "Mummy",
  "3330": " wealthy",
  "3331": " ways",
  "3332": " wags",
  "3333": " witch",
  "3334": " troubled",
  "3335": " trick",
  "3336": " themselves",
  "3337": " though",
  "3338": " sunf",
  "3339": " steel",
  "3340": " steam",
  "3341": " stairs",
  "3342": " spoon",
  "3343": " spent",
  "3344": " skin",
  "3345": " shocked",
  "3346": " shade",
  "3347": " seat",
  "3348": " saying",
  "3349": " sugg",
  "3350": " son",
  "3351": " sent",
  "3352": " rice",
  "3353": " ribbon",
  "3354": " regular",
  "3355": " quar",
  "3356": " punish",
  "3357": " pres",
  "3358": " practice",
  "3359": " popcorn",
  "3360": " popped",
  "3361": " playful",
  "3362": " pirate",
  "3363": " picnic",
  "3364": " peppers",
  "3365": " pale",
  "3366": " pipe",
  "3367": " onion",
  "3368": " ones",
  "3369": " obedient",
  "3370": " oats",
  "3371": " needs",
  "3372": " mush",
  "3373": " motorcycle",
  "3374": " moves",
  "3375": " message",
  "3376": " middle",
  "3377": " lift",
  "3378": " laughs",
  "3379": " lit",
  "3380": " impressive",
  "3381": " imagine",
  "3382": " hotel",
  "3383": " homes",
  "3384": " giving",
  "3385": " generous",
  "3386": " fresh",
  "3387": " front",
  "3388": " exam",
  "3389": " envious",
  "3390": " enjoying",
  "3391": " envelop",
  "3392": " drain",
  "3393": " drum",
  "3394": " distant",
  "3395": " design",
  "3396": " deaf",
  "3397": " dough",
  "3398": " crab",
  "3399": " computer",
  "3400": " cocoa",
  "3401": " cardboard",
  "3402": " cabin",
  "3403": " couple",
  "3404": " cop",
  "3405": " cone",
  "3406": " cards",
  "3407": " camp",
  "3408": " bury",
  "3409": " built",
  "3410": " brothers",
  "3411": " bridge",
  "3412": " boys",
  "3413": " borrow",
  "3414": " beetle",
  "3415": " bathroom",
  "3416": " barks",
  "3417": " bet",
  "3418": " asleep",
  "3419": " Your",
  "3420": " Sh",
  "3421": " Rob",
  "3422": " Red",
  "3423": " Mrs",
  "3424": " Mum",
  "3425": " King",
  "3426": " Give",
  "3427": " Even",
  "3428": " Birdy",
  "3429": " Beaver",
  "3430": " Bessie",
  "3431": " 3",
  "3432": "yd",
  "3433": "ydia",
  "3434": "work",
  "3435": "was",
  "3436": "washer",
  "3437": "uler",
  "3438": "place",
  "3439": "opus",
  "3440": "ola",
  "3441": "over",
  "3442": "lid",
  "3443": "liday",
  "3444": "ject",
  "3445": "inted",
  "3446": "ines",
  "3447": "inary",
  "3448": "icult",
  "3449": "ibi",
  "3450": "hell",
  "3451": "ha",
  "3452": "gu",
  "3453": "ges",
  "3454": "ficult",
  "3455": "endor",
  "3456": "elcome",
  "3457": "eon",
  "3458": "ddy",
  "3459": "dinary",
  "3460": "ctopus",
  "3461": "arian",
  "3462": "alous",
  "3463": "To",
  "3464": "See",
  "3465": "Mr",
  "3466": "Little",
  "3467": " wip",
  "3468": " vendor",
  "3469": " van",
  "3470": " using",
  "3471": " thinking",
  "3472": " tuna",
  "3473": " successful",
  "3474": " starts",
  "3475": " staff",
  "3476": " spoke",
  "3477": " speed",
  "3478": " spread",
  "3479": " solve",
  "3480": " sleeping",
  "3481": " shrink",
  "3482": " shoulder",
  "3483": " shovel",
  "3484": " shiver",
  "3485": " seal",
  "3486": " scare",
  "3487": " sandwich",
  "3488": " sighed",
  "3489": " roared",
  "3490": " returned",
  "3491": " remove",
  "3492": " ruler",
  "3493": " quarrel",
  "3494": " quit",
  "3495": " pushes",
  "3496": " pupp",
  "3497": " print",
  "3498": " present",
  "3499": " practiced",
  "3500": " prot",
  "3501": " pebble",
  "3502": " pins",
  "3503": " organized",
  "3504": " ordinary",
  "3505": " once",
  "3506": " oil",
  "3507": " octopus",
  "3508": " mushroom",
  "3509": " muddy",
  "3510": " missile",
  "3511": " meal",
  "3512": " mel",
  "3513": " lifted",
  "3514": " leak",
  "3515": " lands",
  "3516": " led",
  "3517": " kindness",
  "3518": " journal",
  "3519": " jealous",
  "3520": " jazz",
  "3521": " hurry",
  "3522": " humble",
  "3523": " holiday",
  "3524": " hours",
  "3525": " glitter",
  "3526": " gathered",
  "3527": " gas",
  "3528": " forward",
  "3529": " float",
  "3530": " fluffy",
  "3531": " fireplace",
  "3532": " five",
  "3533": " excitement",
  "3534": " eggs",
  "3535": " eventually",
  "3536": " drawing",
  "3537": " doesn",
  "3538": " dishwasher",
  "3539": " difficult",
  "3540": " delicate",
  "3541": " crown",
  "3542": " collar",
  "3543": " cozy",
  "3544": " col",
  "3545": " classroom",
  "3546": " chickens",
  "3547": " chest",
  "3548": " cheap",
  "3549": " castles",
  "3550": " cord",
  "3551": " block",
  "3552": " belonged",
  "3553": " barber",
  "3554": " batter",
  "3555": " ap",
  "3556": " Tina",
  "3557": " Tilly",
  "3558": " Sharing",
  "3559": " Rover",
  "3560": " Puffy",
  "3561": " Pe",
  "3562": " Lilly",
  "3563": " Lena",
  "3564": " Grandpa",
  "3565": " Fox",
  "3566": " iron",
  "3567": " U",
  "3568": "yfish",
  "3569": "ye",
  "3570": "xe",
  "3571": "urous",
  "3572": "umbers",
  "3573": "ush",
  "3574": "uce",
  "3575": "sive",
  "3576": "ready",
  "3577": "ractive",
  "3578": "play",
  "3579": "phone",
  "3580": "oter",
  "3581": "ormous",
  "3582": "opard",
  "3583": "oco",
  "3584": "ointed",
  "3585": "nger",
  "3586": "nam",
  "3587": "nament",
  "3588": "inked",
  "3589": "inarian",
  "3590": "iew",
  "3591": "ichell",
  "3592": "ichelle",
  "3593": "ium",
  "3594": "htub",
  "3595": "head",
  "3596": "getable",
  "3597": "gen",
  "3598": "eterinarian",
  "3599": "etty",
  "3600": "ereal",
  "3601": "ependable",
  "3602": "ensive",
  "3603": "ellyfish",
  "3604": "edy",
  "3605": "com",
  "3606": "ball",
  "3607": "atient",
  "3608": "aw",
  "3609": "ait",
  "3610": "Yum",
  "3611": "Well",
  "3612": "There",
  "3613": "If",
  "3614": "Bye",
  "3615": "And",
  "3616": ",â",
  "3617": " yourself",
  "3618": " yours",
  "3619": " yogurt",
  "3620": " writing",
  "3621": " wolf",
  "3622": " whistle",
  "3623": " which",
  "3624": " weird",
  "3625": " weigh",
  "3626": " wallet",
  "3627": " walks",
  "3628": " waffle",
  "3629": " wink",
  "3630": " vegetable",
  "3631": " view",
  "3632": " veterinarian",
  "3633": " towers",
  "3634": " these",
  "3635": " telling",
  "3636": " telephone",
  "3637": " tape",
  "3638": " taken",
  "3639": " tiger",
  "3640": " sweetie",
  "3641": " support",
  "3642": " sunset",
  "3643": " stud",
  "3644": " stretched",
  "3645": " stuff",
  "3646": " spun",
  "3647": " spell",
  "3648": " smells",
  "3649": " skirt",
  "3650": " shows",
  "3651": " secrets",
  "3652": " search",
  "3653": " scooter",
  "3654": " sadly",
  "3655": " saving",
  "3656": " sy",
  "3657": " sight",
  "3658": " rotting",
  "3659": " rolling",
  "3660": " rabbits",
  "3661": " puppet",
  "3662": " punished",
  "3663": " prevent",
  "3664": " pray",
  "3665": " poems",
  "3666": " poke",
  "3667": " plates",
  "3668": " phot",
  "3669": " perform",
  "3670": " pilot",
  "3671": " offic",
  "3672": " offered",
  "3673": " numbers",
  "3674": " number",
  "3675": " mistakes",
  "3676": " mailman",
  "3677": " mach",
  "3678": " mind",
  "3679": " melt",
  "3680": " log",
  "3681": " licked",
  "3682": " learning",
  "3683": " leaned",
  "3684": " leopard",
  "3685": " lid",
  "3686": " knock",
  "3687": " joke",
  "3688": " jeep",
  "3689": " jellyfish",
  "3690": " incre",
  "3691": " impatient",
  "3692": " holes",
  "3693": " holds",
  "3694": " helps",
  "3695": " harsh",
  "3696": " happens",
  "3697": " happening",
  "3698": " hanger",
  "3699": " fruits",
  "3700": " frown",
  "3701": " fallen",
  "3702": " expensive",
  "3703": " enormous",
  "3704": " enc",
  "3705": " dreams",
  "3706": " dreaming",
  "3707": " dreamed",
  "3708": " disappointed",
  "3709": " delight",
  "3710": " dependable",
  "3711": " cube",
  "3712": " creatures",
  "3713": " create",
  "3714": " complet",
  "3715": " closely",
  "3716": " cliff",
  "3717": " chess",
  "3718": " chase",
  "3719": " candle",
  "3720": " case",
  "3721": " cereal",
  "3722": " breaks",
  "3723": " breat",
  "3724": " belongs",
  "3725": " bathtub",
  "3726": " bump",
  "3727": " attractive",
  "3728": " already",
  "3729": " adventurous",
  "3730": " axe",
  "3731": " Would",
  "3732": " Soph",
  "3733": " Rex",
  "3734": " Michelle",
  "3735": " Lydia",
  "3736": " Chew",
  "3737": " Cat",
  "3738": " Big",
  "3739": " Bibi",
  "3740": " \n",
  "3741": "zard",
  "3742": "yal",
  "3743": "worm",
  "3744": "vis",
  "3745": "vision",
  "3746": "uper",
  "3747": "uperher",
  "3748": "uperhero",
  "3749": "unn",
  "3750": "ugged",
  "3751": "uckie",
  "3752": "ube",
  "3753": "stairs",
  "3754": "rn",
  "3755": "opl",
  "3756": "ooped",
  "3757": "mbol",
  "3758": "mined",
  "3759": "leas",
  "3760": "light",
  "3761": "ittens",
  "3762": "ither",
  "3763": "ison",
  "3764": "irring",
  "3765": "ination",
  "3766": "ief",
  "3767": "idy",
  "3768": "ikes",
  "3769": "iest",
  "3770": "guin",
  "3771": "gie",
  "3772": "fa",
  "3773": "exture",
  "3774": "etermined",
  "3775": "esday",
  "3776": "erries",
  "3777": "eropl",
  "3778": "erc",
  "3779": "eration",
  "3780": "elsie",
  "3781": "cean",
  "3782": "ca",
  "3783": "castle",
  "3784": "bborn",
  "3785": "arage",
  "3786": "arry",
  "3787": "alley",
  "3788": "aggie",
  "3789": "ado",
  "3790": "Yuck",
  "3791": "Wait",
  "3792": "Ready",
  "3793": "Fr",
  "3794": "Daddy",
  "3795": "Did",
  "3796": "Bobby",
  "3797": " zipping",
  "3798": " zipper",
  "3799": " wiped",
  "3800": " weeping",
  "3801": " week",
  "3802": " warned",
  "3803": " vroom",
  "3804": " valley",
  "3805": " unlock",
  "3806": " trunk",
  "3807": " torn",
  "3808": " thoughtful",
  "3809": " thanks",
  "3810": " thu",
  "3811": " television",
  "3812": " tease",
  "3813": " tube",
  "3814": " tire",
  "3815": " tidy",
  "3816": " texture",
  "3817": " test",
  "3818": " ten",
  "3819": " symbol",
  "3820": " swung",
  "3821": " studied",
  "3822": " stubborn",
  "3823": " strike",
  "3824": " stickers",
  "3825": " stared",
  "3826": " stirring",
  "3827": " stage",
  "3828": " spoiled",
  "3829": " speak",
  "3830": " spid",
  "3831": " spear",
  "3832": " skull",
  "3833": " skipped",
  "3834": " shouts",
  "3835": " shouting",
  "3836": " shouldn",
  "3837": " short",
  "3838": " ship",
  "3839": " settle",
  "3840": " serious",
  "3841": " scratch",
  "3842": " sandcastle",
  "3843": " superhero",
  "3844": " respectful",
  "3845": " replace",
  "3846": " ref",
  "3847": " rings",
  "3848": " pumpkin",
  "3849": " protect",
  "3850": " prov",
  "3851": " poison",
  "3852": " playground",
  "3853": " pigeon",
  "3854": " perm",
  "3855": " penguin",
  "3856": " package",
  "3857": " page",
  "3858": " purse",
  "3859": " ornament",
  "3860": " operation",
  "3861": " ocean",
  "3862": " nicely",
  "3863": " newsp",
  "3864": " names",
  "3865": " nur",
  "3866": " navy",
  "3867": " musician",
  "3868": " monkeys",
  "3869": " moments",
  "3870": " measured",
  "3871": " marble",
  "3872": " machine",
  "3873": " loyal",
  "3874": " load",
  "3875": " lizard",
  "3876": " leaving",
  "3877": " label",
  "3878": " lumber",
  "3879": " low",
  "3880": " knows",
  "3881": " jail",
  "3882": " hurting",
  "3883": " hers",
  "3884": " heads",
  "3885": " hook",
  "3886": " grabs",
  "3887": " glove",
  "3888": " girls",
  "3889": " giggle",
  "3890": " garage",
  "3891": " freeze",
  "3892": " flies",
  "3893": " fastest",
  "3894": " falls",
  "3895": " fed",
  "3896": " eye",
  "3897": " exerc",
  "3898": " earthworm",
  "3899": " drawings",
  "3900": " drinking",
  "3901": " doors",
  "3902": " display",
  "3903": " determined",
  "3904": " cups",
  "3905": " crawled",
  "3906": " counted",
  "3907": " clapping",
  "3908": " calls",
  "3909": " cabinet",
  "3910": " cudd",
  "3911": " cap",
  "3912": " boxes",
  "3913": " bounced",
  "3914": " board",
  "3915": " blinked",
  "3916": " bend",
  "3917": " battery",
  "3918": " bananas",
  "3919": " baa",
  "3920": " bikes",
  "3921": " berries",
  "3922": " anyway",
  "3923": " answered",
  "3924": " acce",
  "3925": " aeropl",
  "3926": " Zippy",
  "3927": " While",
  "3928": " Truckie",
  "3929": " Manny",
  "3930": " Mittens",
  "3931": " Julie",
  "3932": " Inky",
  "3933": " Gia",
  "3934": " End",
  "3935": " Elly",
  "3936": " Coco",
  "3937": " Bloom",
  "3938": " Binky",
  "3939": " Ally",
  "3940": " â",
  "3941": "ym",
  "3942": "veled",
  "3943": "ushed",
  "3944": "tra",
  "3945": "stick",
  "3946": "son",
  "3947": "sity",
  "3948": "ric",
  "3949": "ricane",
  "3950": "riage",
  "3951": "ped",
  "3952": "ounce",
  "3953": "orted",
  "3954": "ops",
  "3955": "olog",
  "3956": "old",
  "3957": "noon",
  "3958": "night",
  "3959": "mless",
  "3960": "mine",
  "3961": "loo",
  "3962": "iversity",
  "3963": "ising",
  "3964": "ince",
  "3965": "imed",
  "3966": "igloo",
  "3967": "iggy",
  "3968": "ipp",
  "3969": "ience",
  "3970": "iel",
  "3971": "happy",
  "3972": "gest",
  "3973": "edge",
  "3974": "eater",
  "3975": "eak",
  "3976": "dern",
  "3977": "chor",
  "3978": "ceful",
  "3979": "cu",
  "3980": "bbing",
  "3981": "axi",
  "3982": "aurant",
  "3983": "aused",
  "3984": "atch",
  "3985": "ases",
  "3986": "arlie",
  "3987": "arter",
  "3988": "agers",
  "3989": "achel",
  "3990": "aby",
  "3991": "Welcome",
  "3992": "Ouch",
  "3993": "Lisa",
  "3994": "Ha",
  "3995": "Grandma",
  "3996": "Go",
  "3997": "..",
  "3998": "'d",
  "3999": " washed",
  "4000": " waving",
  "4001": " wool",
  "4002": " wipe",
  "4003": " wig",
  "4004": " villagers",
  "4005": " vine",
  "4006": " unite",
  "4007": " uncle",
  "4008": " ur",
  "4009": " twist",
  "4010": " trucks",
  "4011": " tremb",
  "4012": " traveled",
  "4013": " travel",
  "4014": " tray",
  "4015": " tour",
  "4016": " thunder",
  "4017": " theater",
  "4018": " tears",
  "4019": " teas",
  "4020": " tick",
  "4021": " taxi",
  "4022": " swinging",
  "4023": " swamp",
  "4024": " supply",
  "4025": " stretching",
  "4026": " stirred",
  "4027": " stones",
  "4028": " stack",
  "4029": " spilled",
  "4030": " spike",
  "4031": " softly",
  "4032": " soil",
  "4033": " sofa",
  "4034": " sneezed",
  "4035": " snap",
  "4036": " smarter",
  "4037": " sliding",
  "4038": " sli",
  "4039": " skip",
  "4040": " silence",
  "4041": " shined",
  "4042": " shells",
  "4043": " scold",
  "4044": " rules",
  "4045": " rod",
  "4046": " restaurant",
  "4047": " resist",
  "4048": " reply",
  "4049": " recognize",
  "4050": " realised",
  "4051": " rece",
  "4052": " rainy",
  "4053": " racing",
  "4054": " questions",
  "4055": " putting",
  "4056": " poured",
  "4057": " popular",
  "4058": " pirates",
  "4059": " permit",
  "4060": " pean",
  "4061": " pair",
  "4062": " paid",
  "4063": " object",
  "4064": " nurses",
  "4065": " newspaper",
  "4066": " needle",
  "4067": " modern",
  "4068": " melon",
  "4069": " marriage",
  "4070": " lipstick",
  "4071": " lips",
  "4072": " knees",
  "4073": " kinds",
  "4074": " invite",
  "4075": " increase",
  "4076": " ins",
  "4077": " hurts",
  "4078": " hurricane",
  "4079": " hills",
  "4080": " heal",
  "4081": " harmless",
  "4082": " hunt",
  "4083": " hive",
  "4084": " hay",
  "4085": " greedy",
  "4086": " grandson",
  "4087": " graceful",
  "4088": " giggled",
  "4089": " gifts",
  "4090": " gym",
  "4091": " grill",
  "4092": " firework",
  "4093": " fearful",
  "4094": " fog",
  "4095": " excitedly",
  "4096": " extra",
  "4097": " ended",
  "4098": " encou",
  "4099": " ener",
  "4100": " east",
  "4101": " dove",
  "4102": " disappeared",
  "4103": " dear",
  "4104": " cricket",
  "4105": " crazy",
  "4106": " complete",
  "4107": " colour",
  "4108": " chance",
  "4109": " carrying",
  "4110": " candles",
  "4111": " cur",
  "4112": " crow",
  "4113": " bumped",
  "4114": " blouse",
  "4115": " bites",
  "4116": " biggest",
  "4117": " baked",
  "4118": " apolog",
  "4119": " anchor",
  "4120": " amb",
  "4121": " agrees",
  "4122": " afternoon",
  "4123": " aeroplane",
  "4124": " admired",
  "4125": " accidentally",
  "4126": " above",
  "4127": " aw",
  "4128": " ahead",
  "4129": " Zip",
  "4130": " Water",
  "4131": " Sammy",
  "4132": " Sandy",
  "4133": " Rudy",
  "4134": " Rude",
  "4135": " Rose",
  "4136": " Rich",
  "4137": " Pepper",
  "4138": " Peter",
  "4139": " Olive",
  "4140": " Next",
  "4141": " Mill",
  "4142": " Instead",
  "4143": " Is",
  "4144": " Hop",
  "4145": " Hippy",
  "4146": " Harry",
  "4147": " Everywhere",
  "4148": " Daniel",
  "4149": " Charlie",
  "4150": " Benny",
  "4151": " Bear",
  "4152": " igloo",
  "4153": " edge",
  "4154": "yer",
  "4155": "xu",
  "4156": "xury",
  "4157": "xious",
  "4158": "ws",
  "4159": "wards",
  "4160": "verse",
  "4161": "vet",
  "4162": "ulance",
  "4163": "ugsy",
  "4164": "ugar",
  "4165": "uxury",
  "4166": "serve",
  "4167": "rod",
  "4168": "reeze",
  "4169": "rect",
  "4170": "reck",
  "4171": "rawberries",
  "4172": "race",
  "4173": "riger",
  "4174": "rigerator",
  "4175": "quake",
  "4176": "ppery",
  "4177": "osie",
  "4178": "ortable",
  "4179": "ory",
  "4180": "orch",
  "4181": "oose",
  "4182": "omm",
  "4183": "ommend",
  "4184": "omb",
  "4185": "oggy",
  "4186": "ngue",
  "4187": "med",
  "4188": "mble",
  "4189": "mand",
  "4190": "manda",
  "4191": "lp",
  "4192": "lies",
  "4193": "land",
  "4194": "ka",
  "4195": "izes",
  "4196": "istent",
  "4197": "isted",
  "4198": "ions",
  "4199": "ilet",
  "4200": "iches",
  "4201": "ives",
  "4202": "ika",
  "4203": "gue",
  "4204": "ffic",
  "4205": "fortable",
  "4206": "fant",
  "4207": "face",
  "4208": "ested",
  "4209": "emember",
  "4210": "elvet",
  "4211": "ddler",
  "4212": "comfortable",
  "4213": "ccer",
  "4214": "body",
  "4215": "bby",
  "4216": "arlton",
  "4217": "aria",
  "4218": "alph",
  "4219": "ailable",
  "4220": "ages",
  "4221": "acked",
  "4222": "apped",
  "4223": "Yumi",
  "4224": "Yay",
  "4225": "Velvet",
  "4226": "Polly",
  "4227": "Not",
  "4228": "Momo",
  "4229": "Mary",
  "4230": "Le",
  "4231": "Jenny",
  "4232": "Inside",
  "4233": "Grandpa",
  "4234": "Goodbye",
  "4235": "Give",
  "4236": "Emma",
  "4237": "'.",
  "4238": " â",
  "4239": " yet",
  "4240": " writ",
  "4241": " whispered",
  "4242": " whisper",
  "4243": " warn",
  "4244": " wreck",
  "4245": " upstairs",
  "4246": " unp",
  "4247": " unhappy",
  "4248": " uncomfortable",
  "4249": " tricks",
  "4250": " tremble",
  "4251": " trail",
  "4252": " traffic",
  "4253": " tracks",
  "4254": " tongue",
  "4255": " toilet",
  "4256": " toddler",
  "4257": " toast",
  "4258": " tightly",
  "4259": " thread",
  "4260": " thumb",
  "4261": " tug",
  "4262": " surface",
  "4263": " sunflower",
  "4264": " suggest",
  "4265": " stom",
  "4266": " stair",
  "4267": " squeeze",
  "4268": " sprayed",
  "4269": " spider",
  "4270": " sorting",
  "4271": " soccer",
  "4272": " soar",
  "4273": " sniff",
  "4274": " sneak",
  "4275": " slippery",
  "4276": " slip",
  "4277": " slap",
  "4278": " shrugged",
  "4279": " shone",
  "4280": " shakes",
  "4281": " setting",
  "4282": " serve",
  "4283": " second",
  "4284": " screw",
  "4285": " sandwiches",
  "4286": " sauce",
  "4287": " sugar",
  "4288": " sudden",
  "4289": " sir",
  "4290": " rooms",
  "4291": " repair",
  "4292": " refrigerator",
  "4293": " radish",
  "4294": " rushed",
  "4295": " rug",
  "4296": " pushing",
  "4297": " pupil",
  "4298": " puddles",
  "4299": " pretending",
  "4300": " pride",
  "4301": " planted",
  "4302": " pinch",
  "4303": " picking",
  "4304": " photo",
  "4305": " persistent",
  "4306": " panic",
  "4307": " packed",
  "4308": " port",
  "4309": " porch",
  "4310": " opera",
  "4311": " observe",
  "4312": " oy",
  "4313": " oak",
  "4314": " nowhere",
  "4315": " nosy",
  "4316": " noon",
  "4317": " neighbors",
  "4318": " none",
  "4319": " mystery",
  "4320": " metal",
  "4321": " means",
  "4322": " married",
  "4323": " may",
  "4324": " mall",
  "4325": " loudly",
  "4326": " louder",
  "4327": " lions",
  "4328": " letting",
  "4329": " lawyer",
  "4330": " lap",
  "4331": " laid",
  "4332": " luxury",
  "4333": " kay",
  "4334": " judge",
  "4335": " jewelry",
  "4336": " island",
  "4337": " invit",
  "4338": " introd",
  "4339": " insisted",
  "4340": " infant",
  "4341": " ideas",
  "4342": " hoping",
  "4343": " helper",
  "4344": " handed",
  "4345": " golden",
  "4346": " glue",
  "4347": " gust",
  "4348": " forgave",
  "4349": " following",
  "4350": " folded",
  "4351": " flash",
  "4352": " fixing",
  "4353": " filthy",
  "4354": " feelings",
  "4355": " fet",
  "4356": " exercise",
  "4357": " envelope",
  "4358": " energy",
  "4359": " earthquake",
  "4360": " either",
  "4361": " drops",
  "4362": " dressed",
  "4363": " drawer",
  "4364": " discovered",
  "4365": " destroyed",
  "4366": " delighted",
  "4367": " counting",
  "4368": " courage",
  "4369": " cooking",
  "4370": " comfortable",
  "4371": " comforted",
  "4372": " colourful",
  "4373": " coal",
  "4374": " claws",
  "4375": " checked",
  "4376": " chases",
  "4377": " caring",
  "4378": " city",
  "4379": " cell",
  "4380": " caused",
  "4381": " butterflies",
  "4382": " bushes",
  "4383": " burned",
  "4384": " buckets",
  "4385": " breathe",
  "4386": " brush",
  "4387": " brings",
  "4388": " bloom",
  "4389": " beep",
  "4390": " barking",
  "4391": " bother",
  "4392": " bomb",
  "4393": " ble",
  "4394": " bent",
  "4395": " avoc",
  "4396": " available",
  "4397": " art",
  "4398": " argue",
  "4399": " anywhere",
  "4400": " anxious",
  "4401": " ambulance",
  "4402": " airport",
  "4403": " against",
  "4404": " admire",
  "4405": " acting",
  "4406": " Ziggy",
  "4407": " Whist",
  "4408": " Will",
  "4409": " Sophie",
  "4410": " Rachel",
  "4411": " Or",
  "4412": " Mo",
  "4413": " Milly",
  "4414": " Lee",
  "4415": " Look",
  "4416": " Lipp",
  "4417": " Kate",
  "4418": " June",
  "4419": " Jessie",
  "4420": " Jason",
  "4421": " Its",
  "4422": " Help",
  "4423": " Circle",
  "4424": " Carlton",
  "4425": " Bounce",
  "4426": " Betty",
  "4427": " Baby",
  "4428": " Velvet",
  "4429": " \n ",
  "4430": "zes",
  "4431": "zen",
  "4432": "ygen",
  "4433": "xygen",
  "4434": "we",
  "4435": "ween",
  "4436": "vice",
  "4437": "uth",
  "4438": "unnies",
  "4439": "uggage",
  "4440": "uffer",
  "4441": "ucet",
  "4442": "uable",
  "4443": "ther",
  "4444": "shion",
  "4445": "sc",
  "4446": "redient",
  "4447": "redients",
  "4448": "rec",
  "4449": "reci",
  "4450": "quare",
  "4451": "phin",
  "4452": "pon",
  "4453": "ourite",
  "4454": "orse",
  "4455": "orill",
  "4456": "orilla",
  "4457": "orable",
  "4458": "onic",
  "4459": "onica",
  "4460": "oga",
  "4461": "ozen",
  "4462": "osed",
  "4463": "ngth",
  "4464": "munk",
  "4465": "mother",
  "4466": "lowers",
  "4467": "lu",
  "4468": "ls",
  "4469": "lphin",
  "4470": "keep",
  "4471": "keeper",
  "4472": "kins",
  "4473": "itched",
  "4474": "ipmunk",
  "4475": "ingredients",
  "4476": "inda",
  "4477": "illboard",
  "4478": "ife",
  "4479": "heart",
  "4480": "house",
  "4481": "fied",
  "4482": "essert",
  "4483": "ero",
  "4484": "erience",
  "4485": "enry",
  "4486": "ement",
  "4487": "emand",
  "4488": "eds",
  "4489": "ecause",
  "4490": "ea",
  "4491": "dom",
  "4492": "ceed",
  "4493": "cient",
  "4494": "bies",
  "4495": "ating",
  "4496": "ari",
  "4497": "als",
  "4498": "ained",
  "4499": "affle",
  "4500": "adium",
  "4501": "aches",
  "4502": "astic",
  "4503": "Yoga",
  "4504": "Will",
  "4505": "These",
  "4506": "Teddy",
  "4507": "Sh",
  "4508": "Penny",
  "4509": "Leo",
  "4510": "Lola",
  "4511": "Jim",
  "4512": "Jill",
  "4513": "Is",
  "4514": "Everyone",
  "4515": "Ella",
  "4516": "Bugsy",
  "4517": "Buddy",
  "4518": "Are",
  "4519": "Ah",
  "4520": "!\".",
  "4521": " zero",
  "4522": " youth",
  "4523": " writes",
  "4524": " worse",
  "4525": " windows",
  "4526": " wheels",
  "4527": " watches",
  "4528": " wire",
  "4529": " west",
  "4530": " visited",
  "4531": " valuable",
  "4532": " vet",
  "4533": " twir",
  "4534": " trusted",
  "4535": " tripped",
  "4536": " trembling",
  "4537": " trapped",
  "4538": " trains",
  "4539": " truth",
  "4540": " theirs",
  "4541": " those",
  "4542": " thief",
  "4543": " thick",
  "4544": " tub",
  "4545": " tip",
  "4546": " tent",
  "4547": " symbols",
  "4548": " sweeties",
  "4549": " sweetheart",
  "4550": " sweater",
  "4551": " supposed",
  "4552": " sunflowers",
  "4553": " suggested",
  "4554": " succeed",
  "4555": " strength",
  "4556": " strugg",
  "4557": " strawberries",
  "4558": " stadium",
  "4559": " squee",
  "4560": " splashing",
  "4561": " sparkly",
  "4562": " sparkling",
  "4563": " sparkled",
  "4564": " spend",
  "4565": " spade",
  "4566": " solved",
  "4567": " sock",
  "4568": " sniffed",
  "4569": " sneezes",
  "4570": " shivering",
  "4571": " shot",
  "4572": " shaking",
  "4573": " screams",
  "4574": " scolded",
  "4575": " scattering",
  "4576": " scooped",
  "4577": " safely",
  "4578": " safari",
  "4579": " suffer",
  "4580": " since",
  "4581": " recorded",
  "4582": " recommend",
  "4583": " reaches",
  "4584": " rained",
  "4585": " raise",
  "4586": " raft",
  "4587": " pulls",
  "4588": " provide",
  "4589": " proudly",
  "4590": " petals",
  "4591": " perfume",
  "4592": " pens",
  "4593": " peanuts",
  "4594": " pee",
  "4595": " peaches",
  "4596": " passport",
  "4597": " paintings",
  "4598": " pages",
  "4599": " ple",
  "4600": " penny",
  "4601": " pad",
  "4602": " older",
  "4603": " officers",
  "4604": " oxygen",
  "4605": " ol",
  "4606": " novel",
  "4607": " neat",
  "4608": " napkin",
  "4609": " nine",
  "4610": " mouths",
  "4611": " moat",
  "4612": " meeting",
  "4613": " matches",
  "4614": " marched",
  "4615": " mass",
  "4616": " loops",
  "4617": " listens",
  "4618": " listening",
  "4619": " landscape",
  "4620": " luggage",
  "4621": " kneel",
  "4622": " knight",
  "4623": " kayak",
  "4624": " inclu",
  "4625": " impressed",
  "4626": " imagination",
  "4627": " ignored",
  "4628": " ignore",
  "4629": " horses",
  "4630": " heel",
  "4631": " heat",
  "4632": " happier",
  "4633": " handle",
  "4634": " grandmother",
  "4635": " gorilla",
  "4636": " frowned",
  "4637": " frozen",
  "4638": " forgotten",
  "4639": " fork",
  "4640": " flashlight",
  "4641": " flood",
  "4642": " flap",
  "4643": " fingers",
  "4644": " favourite",
  "4645": " falling",
  "4646": " faucet",
  "4647": " fashion",
  "4648": " fleas",
  "4649": " experience",
  "4650": " envelopes",
  "4651": " entr",
  "4652": " encourage",
  "4653": " ears",
  "4654": " early",
  "4655": " dolphin",
  "4656": " direct",
  "4657": " dive",
  "4658": " dessert",
  "4659": " demand",
  "4660": " cuts",
  "4661": " cras",
  "4662": " climbing",
  "4663": " clown",
  "4664": " circles",
  "4665": " chairs",
  "4666": " chose",
  "4667": " choose",
  "4668": " chipmunk",
  "4669": " chain",
  "4670": " catching",
  "4671": " cartoon",
  "4672": " cared",
  "4673": " burn",
  "4674": " brighter",
  "4675": " boots",
  "4676": " bleed",
  "4677": " biting",
  "4678": " between",
  "4679": " bees",
  "4680": " beamed",
  "4681": " bang",
  "4682": " babies",
  "4683": " bunnies",
  "4684": " billboard",
  "4685": " avocado",
  "4686": " appreci",
  "4687": " ancient",
  "4688": " allowed",
  "4689": " adorable",
  "4690": " acorn",
  "4691": " Without",
  "4692": " Whistler",
  "4693": " Where",
  "4694": " Under",
  "4695": " Strawberry",
  "4696": " Star",
  "4697": " Sunny",
  "4698": " Square",
  "4699": " Sm",
  "4700": " See",
  "4701": " Rosie",
  "4702": " Oliver",
  "4703": " Maggie",
  "4704": " Leave",
  "4705": " Lola",
  "4706": " Little",
  "4707": " Kelsie",
  "4708": " Jimmy",
  "4709": " Horse",
  "4710": " Henry",
  "4711": " Good",
  "4712": " Gerry",
  "4713": " Gary",
  "4714": " Freddy",
  "4715": " Everything",
  "4716": " Everyday",
  "4717": " Cow",
  "4718": " Are",
  "4719": " Amanda",
  "4720": " ingredients",
  "4721": " Yumi",
  "4722": "â.",
  "4723": "zor",
  "4724": "zer",
  "4725": "yle",
  "4726": "year",
  "4727": "web",
  "4728": "walk",
  "4729": "utter",
  "4730": "ustom",
  "4731": "ustomer",
  "4732": "ushes",
  "4733": "untie",
  "4734": "uct",
  "4735": "ubway",
  "4736": "uppy",
  "4737": "uesday",
  "4738": "uel",
  "4739": "thank",
  "4740": "terday",
  "4741": "scop",
  "4742": "scope",
  "4743": "sit",
  "4744": "sb",
  "4745": "sboy",
  "4746": "roscope",
  "4747": "ree",
  "4748": "rr",
  "4749": "rink",
  "4750": "pted",
  "4751": "orge",
  "4752": "oral",
  "4753": "ony",
  "4754": "onn",
  "4755": "onnie",
  "4756": "obweb",
  "4757": "oed",
  "4758": "ocks",
  "4759": "naughty",
  "4760": "nit",
  "4761": "niture",
  "4762": "nesday",
  "4763": "ne",
  "4764": "mergen",
  "4765": "mergency",
  "4766": "men",
  "4767": "mare",
  "4768": "mares",
  "4769": "lora",
  "4770": "leton",
  "4771": "lter",
  "4772": "look",
  "4773": "la",
  "4774": "laimed",
  "4775": "keleton",
  "4776": "izing",
  "4777": "istol",
  "4778": "isty",
  "4779": "ips",
  "4780": "ipes",
  "4781": "iona",
  "4782": "ime",
  "4783": "igers",
  "4784": "ides",
  "4785": "ictory",
  "4786": "icroscope",
  "4787": "ived",
  "4788": "hood",
  "4789": "gers",
  "4790": "fuse",
  "4791": "ffort",
  "4792": "freeze",
  "4793": "ethro",
  "4794": "ention",
  "4795": "ednesday",
  "4796": "ecture",
  "4797": "ected",
  "4798": "eah",
  "4799": "eorge",
  "4800": "ded",
  "4801": "choo",
  "4802": "cer",
  "4803": "azine",
  "4804": "awk",
  "4805": "avid",
  "4806": "ato",
  "4807": "ately",
  "4808": "ata",
  "4809": "araway",
  "4810": "apon",
  "4811": "apers",
  "4812": "any",
  "4813": "anes",
  "4814": "allen",
  "4815": "acky",
  "4816": "aul",
  "4817": "ached",
  "4818": "aa",
  "4819": "Your",
  "4820": "Yeah",
  "4821": "Together",
  "4822": "Tr",
  "4823": "Susie",
  "4824": "Ru",
  "4825": "Peter",
  "4826": "Ow",
  "4827": "Oops",
  "4828": "Next",
  "4829": "Moral",
  "4830": "Mark",
  "4831": "Luna",
  "4832": "Linda",
  "4833": "Lilly",
  "4834": "Kate",
  "4835": "Jimmy",
  "4836": "Hold",
  "4837": "Frank",
  "4838": "During",
  "4839": "Day",
  "4840": "Dan",
  "4841": "Bobo",
  "4842": "Bad",
  "4843": "Baa",
  "4844": " zooming",
  "4845": " yaw",
  "4846": " worms",
  "4847": " worth",
  "4848": " whenever",
  "4849": " whatever",
  "4850": " weeds",
  "4851": " weapon",
  "4852": " washing",
  "4853": " warning",
  "4854": " waits",
  "4855": " waves",
  "4856": " wob",
  "4857": " vegetables",
  "4858": " victory",
  "4859": " urge",
  "4860": " unpack",
  "4861": " understanding",
  "4862": " underground",
  "4863": " university",
  "4864": " twisty",
  "4865": " toes",
  "4866": " throws",
  "4867": " throwing",
  "4868": " teasing",
  "4869": " tummy",
  "4870": " tigers",
  "4871": " tide",
  "4872": " switched",
  "4873": " struck",
  "4874": " stove",
  "4875": " steps",
  "4876": " stealing",
  "4877": " style",
  "4878": " stare",
  "4879": " stall",
  "4880": " squeezed",
  "4881": " sounded",
  "4882": " sorted",
  "4883": " soak",
  "4884": " sneaky",
  "4885": " slides",
  "4886": " sidewalk",
  "4887": " shrinking",
  "4888": " shopping",
  "4889": " shelter",
  "4890": " shore",
  "4891": " served",
  "4892": " seats",
  "4893": " scri",
  "4894": " suit",
  "4895": " subway",
  "4896": " skeleton",
  "4897": " six",
  "4898": " rush",
  "4899": " rubbed",
  "4900": " rocking",
  "4901": " robots",
  "4902": " rides",
  "4903": " return",
  "4904": " resting",
  "4905": " respon",
  "4906": " reminded",
  "4907": " recording",
  "4908": " recognized",
  "4909": " received",
  "4910": " reverse",
  "4911": " repe",
  "4912": " release",
  "4913": " refused",
  "4914": " refuse",
  "4915": " razor",
  "4916": " raised",
  "4917": " quack",
  "4918": " pupils",
  "4919": " pumpkins",
  "4920": " pulling",
  "4921": " postman",
  "4922": " points",
  "4923": " pointing",
  "4924": " poss",
  "4925": " pose",
  "4926": " plays",
  "4927": " planes",
  "4928": " plastic",
  "4929": " pinched",
  "4930": " pinata",
  "4931": " peeked",
  "4932": " pedals",
  "4933": " pastry",
  "4934": " parade",
  "4935": " pra",
  "4936": " pistol",
  "4937": " pies",
  "4938": " oyster",
  "4939": " ours",
  "4940": " ordered",
  "4941": " officer",
  "4942": " nobody",
  "4943": " nightmares",
  "4944": " newsboy",
  "4945": " neighbour",
  "4946": " nations",
  "4947": " naps",
  "4948": " myself",
  "4949": " mustache",
  "4950": " motion",
  "4951": " medium",
  "4952": " measuring",
  "4953": " markers",
  "4954": " mane",
  "4955": " magazine",
  "4956": " mild",
  "4957": " microscope",
  "4958": " mice",
  "4959": " math",
  "4960": " lie",
  "4961": " lets",
  "4962": " lawn",
  "4963": " laser",
  "4964": " lecture",
  "4965": " known",
  "4966": " knot",
  "4967": " knocks",
  "4968": " keeping",
  "4969": " jogging",
  "4970": " jogged",
  "4971": " jokes",
  "4972": " jets",
  "4973": " invitation",
  "4974": " imagined",
  "4975": " hunter",
  "4976": " helmets",
  "4977": " hesit",
  "4978": " hanging",
  "4979": " hall",
  "4980": " growled",
  "4981": " grin",
  "4982": " goat",
  "4983": " goal",
  "4984": " glowing",
  "4985": " gifted",
  "4986": " gears",
  "4987": " gasped",
  "4988": " gum",
  "4989": " furniture",
  "4990": " freezer",
  "4991": " flaps",
  "4992": " fishing",
  "4993": " fireworks",
  "4994": " firemen",
  "4995": " fetch",
  "4996": " fuel",
  "4997": " faraway",
  "4998": " exclaimed",
  "4999": " examine",
  "5000": " expect",
  "5001": " evening",
  "5002": " entrance",
  "5003": " entered",
  "5004": " eagerly",
  "5005": " event",
  "5006": " emergency",
  "5007": " effort",
  "5008": " drivers",
  "5009": " distance",
  "5010": " discovery",
  "5011": " dishes",
  "5012": " discu",
  "5013": " dinosaurs",
  "5014": " during",
  "5015": " dare",
  "5016": " da",
  "5017": " cuddle",
  "5018": " crossed",
  "5019": " created",
  "5020": " crashed",
  "5021": " counter",
  "5022": " cooler",
  "5023": " comets",
  "5024": " closet",
  "5025": " chewing",
  "5026": " chewed",
  "5027": " check",
  "5028": " choice",
  "5029": " chirp",
  "5030": " challen",
  "5031": " cele",
  "5032": " catches",
  "5033": " carries",
  "5034": " calling",
  "5035": " cakes",
  "5036": " cable",
  "5037": " customer",
  "5038": " cro",
  "5039": " cork",
  "5040": " cobweb",
  "5041": " buttons",
  "5042": " burst",
  "5043": " buzz",
  "5044": " buses",
  "5045": " buried",
  "5046": " brightly",
  "5047": " breeze",
  "5048": " breaking",
  "5049": " brushes",
  "5050": " boats",
  "5051": " blueber",
  "5052": " blackboard",
  "5053": " blink",
  "5054": " belly",
  "5055": " bandage",
  "5056": " bags",
  "5057": " baking",
  "5058": " bones",
  "5059": " area",
  "5060": " applauded",
  "5061": " apologize",
  "5062": " angels",
  "5063": " alive",
  "5064": " advice",
  "5065": " accepted",
  "5066": " accept",
  "5067": " ach",
  "5068": " Who",
  "5069": " Wednesday",
  "5070": " Waffle",
  "5071": " Tuesday",
  "5072": " Sky",
  "5073": " Ruby",
  "5074": " Robo",
  "5075": " Remember",
  "5076": " Ralph",
  "5077": " Puppy",
  "5078": " Pizza",
  "5079": " Pinky",
  "5080": " Ow",
  "5081": " Momma",
  "5082": " Monica",
  "5083": " Miss",
  "5084": " Maria",
  "5085": " Kim",
  "5086": " Johnny",
  "5087": " Here",
  "5088": " Grace",
  "5089": " For",
  "5090": " Flora",
  "5091": " Doggy",
  "5092": " Din",
  "5093": " David",
  "5094": " Auntie",
  "5095": " Ant",
  "5096": " Abby",
  "5097": "wed",
  "5098": "vi",
  "5099": "usb",
  "5100": "usband",
  "5101": "unnel",
  "5102": "uney",
  "5103": "unes",
  "5104": "umes",
  "5105": "ults",
  "5106": "ughter",
  "5107": "uggle",
  "5108": "ucture",
  "5109": "uced",
  "5110": "used",
  "5111": "ternet",
  "5112": "ts",
  "5113": "time",
  "5114": "str",
  "5115": "sters",
  "5116": "rian",
  "5117": "retend",
  "5118": "render",
  "5119": "rely",
  "5120": "ratul",
  "5121": "runey",
  "5122": "ru",
  "5123": "rown",
  "5124": "right",
  "5125": "quip",
  "5126": "quipment",
  "5127": "plash",
  "5128": "poon",
  "5129": "pare",
  "5130": "ouch",
  "5131": "ots",
  "5132": "osting",
  "5133": "osen",
  "5134": "ores",
  "5135": "ophia",
  "5136": "ongratul",
  "5137": "omeone",
  "5138": "omas",
  "5139": "neath",
  "5140": "niversity",
  "5141": "ney",
  "5142": "medi",
  "5143": "mediately",
  "5144": "mm",
  "5145": "mies",
  "5146": "mel",
  "5147": "melia",
  "5148": "looking",
  "5149": "len",
  "5150": "ition",
  "5151": "inkling",
  "5152": "inde",
  "5153": "indeer",
  "5154": "ining",
  "5155": "imney",
  "5156": "ibil",
  "5157": "iving",
  "5158": "ipping",
  "5159": "iers",
  "5160": "ibbit",
  "5161": "hter",
  "5162": "hurt",
  "5163": "give",
  "5164": "enty",
  "5165": "ender",
  "5166": "ense",
  "5167": "engers",
  "5168": "ecially",
  "5169": "eed",
  "5170": "eally",
  "5171": "ding",
  "5172": "dile",
  "5173": "dged",
  "5174": "da",
  "5175": "cuse",
  "5176": "codile",
  "5177": "cky",
  "5178": "clock",
  "5179": "cious",
  "5180": "cakes",
  "5181": "cage",
  "5182": "bey",
  "5183": "atched",
  "5184": "arnt",
  "5185": "antly",
  "5186": "ans",
  "5187": "airy",
  "5188": "aging",
  "5189": "apping",
  "5190": "aid",
  "5191": "Zoom",
  "5192": "Woof",
  "5193": "Watch",
  "5194": "Today",
  "5195": "Toby",
  "5196": "Tilly",
  "5197": "Surpr",
  "5198": "Sophia",
  "5199": "Someone",
  "5200": "Slow",
  "5201": "Ribbit",
  "5202": "Remy",
  "5203": "Qu",
  "5204": "Poppy",
  "5205": "Paul",
  "5206": "Never",
  "5207": "Mrs",
  "5208": "Mimi",
  "5209": "Mill",
  "5210": "Mika",
  "5211": "Mama",
  "5212": "Maggie",
  "5213": "Kelsie",
  "5214": "Julie",
  "5215": "Jason",
  "5216": "Get",
  "5217": "Gary",
  "5218": "Fine",
  "5219": "Eventually",
  "5220": "Days",
  "5221": "Betty",
  "5222": "Bella",
  "5223": "Ann",
  "5224": "All",
  "5225": "?\".",
  "5226": "?\",",
  "5227": "?!\"",
  "5228": "...",
  "5229": "!'",
  "5230": " zoomed",
  "5231": " yoghurt",
  "5232": " yucky",
  "5233": " wrapping",
  "5234": " worker",
  "5235": " wishing",
  "5236": " wisely",
  "5237": " winks",
  "5238": " winter",
  "5239": " winning",
  "5240": " winking",
  "5241": " wiggly",
  "5242": " wiggled",
  "5243": " whistling",
  "5244": " watered",
  "5245": " waiter",
  "5246": " waffles",
  "5247": " wins",
  "5248": " visiting",
  "5249": " vanished",
  "5250": " upside",
  "5251": " untie",
  "5252": " unl",
  "5253": " twirled",
  "5254": " twice",
  "5255": " tricky",
  "5256": " treasures",
  "5257": " tru",
  "5258": " tornado",
  "5259": " tonight",
  "5260": " timer",
  "5261": " thrill",
  "5262": " teaspoon",
  "5263": " teaching",
  "5264": " tasks",
  "5265": " tunnel",
  "5266": " swooped",
  "5267": " surrender",
  "5268": " superheroes",
  "5269": " sunlight",
  "5270": " struggling",
  "5271": " strikes",
  "5272": " structure",
  "5273": " storekeeper",
  "5274": " stomped",
  "5275": " sticky",
  "5276": " sticker",
  "5277": " stays",
  "5278": " starting",
  "5279": " sting",
  "5280": " squas",
  "5281": " spills",
  "5282": " somewhere",
  "5283": " soldiers",
  "5284": " soda",
  "5285": " soaring",
  "5286": " snowball",
  "5287": " snapped",
  "5288": " snugg",
  "5289": " snatched",
  "5290": " slower",
  "5291": " slapped",
  "5292": " signs",
  "5293": " shock",
  "5294": " selling",
  "5295": " seeing",
  "5296": " searching",
  "5297": " scribb",
  "5298": " scratched",
  "5299": " scru",
  "5300": " salt",
  "5301": " sadness",
  "5302": " sizes",
  "5303": " sim",
  "5304": " sigh",
  "5305": " sense",
  "5306": " ruby",
  "5307": " rolls",
  "5308": " robin",
  "5309": " roaring",
  "5310": " ringing",
  "5311": " ribbit",
  "5312": " respons",
  "5313": " repeat",
  "5314": " reminder",
  "5315": " remained",
  "5316": " relaxed",
  "5317": " regret",
  "5318": " receive",
  "5319": " recipes",
  "5320": " reaching",
  "5321": " requ",
  "5322": " reindeer",
  "5323": " rats",
  "5324": " rang",
  "5325": " raising",
  "5326": " rust",
  "5327": " row",
  "5328": " quite",
  "5329": " puzzles",
  "5330": " purpose",
  "5331": " puppets",
  "5332": " provided",
  "5333": " problems",
  "5334": " project",
  "5335": " pretends",
  "5336": " prett",
  "5337": " prepare",
  "5338": " precious",
  "5339": " prunes",
  "5340": " powers",
  "5341": " poses",
  "5342": " poking",
  "5343": " pleased",
  "5344": " plenty",
  "5345": " performed",
  "5346": " perfectly",
  "5347": " pencils",
  "5348": " peered",
  "5349": " patterns",
  "5350": " patted",
  "5351": " passengers",
  "5352": " pairs",
  "5353": " padd",
  "5354": " packages",
  "5355": " pur",
  "5356": " papers",
  "5357": " palm",
  "5358": " owned",
  "5359": " organize",
  "5360": " olives",
  "5361": " offer",
  "5362": " often",
  "5363": " odd",
  "5364": " obey",
  "5365": " oat",
  "5366": " nests",
  "5367": " nails",
  "5368": " movies",
  "5369": " mixing",
  "5370": " missing",
  "5371": " massage",
  "5372": " managing",
  "5373": " manage",
  "5374": " master",
  "5375": " mask",
  "5376": " loose",
  "5377": " longest",
  "5378": " locked",
  "5379": " leads",
  "5380": " learnt",
  "5381": " laughter",
  "5382": " lung",
  "5383": " lined",
  "5384": " limes",
  "5385": " kisses",
  "5386": " kingdom",
  "5387": " kicking",
  "5388": " keeps",
  "5389": " joining",
  "5390": " joking",
  "5391": " introduced",
  "5392": " introduce",
  "5393": " internet",
  "5394": " importance",
  "5395": " immediately",
  "5396": " image",
  "5397": " humming",
  "5398": " honk",
  "5399": " hearing",
  "5400": " headed",
  "5401": " height",
  "5402": " hedge",
  "5403": " happiest",
  "5404": " halfway",
  "5405": " husband",
  "5406": " hitting",
  "5407": " hi",
  "5408": " growls",
  "5409": " grabbing",
  "5410": " frogs",
  "5411": " frosting",
  "5412": " forgives",
  "5413": " fort",
  "5414": " football",
  "5415": " follows",
  "5416": " floaty",
  "5417": " floated",
  "5418": " flutter",
  "5419": " flapped",
  "5420": " finds",
  "5421": " films",
  "5422": " figured",
  "5423": " feeding",
  "5424": " explored",
  "5425": " exit",
  "5426": " enter",
  "5427": " eats",
  "5428": " easily",
  "5429": " equipment",
  "5430": " ech",
  "5431": " driving",
  "5432": " dresses",
  "5433": " dragons",
  "5434": " dollhouse",
  "5435": " doggy",
  "5436": " discuss",
  "5437": " disag",
  "5438": " directions",
  "5439": " digging",
  "5440": " differen",
  "5441": " demanded",
  "5442": " delivered",
  "5443": " delay",
  "5444": " decorations",
  "5445": " dears",
  "5446": " daughter",
  "5447": " dared",
  "5448": " daisy",
  "5449": " curled",
  "5450": " cupboard",
  "5451": " cuddled",
  "5452": " crocodile",
  "5453": " creations",
  "5454": " creation",
  "5455": " crawl",
  "5456": " crackers",
  "5457": " crash",
  "5458": " crunch",
  "5459": " country",
  "5460": " costumes",
  "5461": " contain",
  "5462": " company",
  "5463": " colours",
  "5464": " copper",
  "5465": " click",
  "5466": " changing",
  "5467": " chosen",
  "5468": " chimney",
  "5469": " cartoons",
  "5470": " canes",
  "5471": " calmed",
  "5472": " coug",
  "5473": " cause",
  "5474": " bye",
  "5475": " burning",
  "5476": " buildings",
  "5477": " bringing",
  "5478": " bravely",
  "5479": " boom",
  "5480": " blueberries",
  "5481": " blocking",
  "5482": " birdie",
  "5483": " birdcage",
  "5484": " bears",
  "5485": " beast",
  "5486": " beg",
  "5487": " balan",
  "5488": " badly",
  "5489": " barely",
  "5490": " bumpy",
  "5491": " attention",
  "5492": " attached",
  "5493": " arrows",
  "5494": " arrive",
  "5495": " appear",
  "5496": " ann",
  "5497": " amazement",
  "5498": " amount",
  "5499": " alright",
  "5500": " afterwards",
  "5501": " admir",
  "5502": " adding",
  "5503": " adults",
  "5504": " actually",
  "5505": " achieve",
  "5506": " acted",
  "5507": " aimed",
  "5508": " Whenever",
  "5509": " Welcome",
  "5510": " University",
  "5511": " Tweety",
  "5512": " Tweetie",
  "5513": " Tooth",
  "5514": " Thomas",
  "5515": " Sophia",
  "5516": " Something",
  "5517": " Someone",
  "5518": " Smith",
  "5519": " Soup",
  "5520": " Ronnie",
  "5521": " Ready",
  "5522": " People",
  "5523": " Pruney",
  "5524": " Pilot",
  "5525": " Our",
  "5526": " OK",
  "5527": " Not",
  "5528": " Moby",
  "5529": " Mika",
  "5530": " Mama",
  "5531": " Like",
  "5532": " Later",
  "5533": " Gina",
  "5534": " Get",
  "5535": " George",
  "5536": " Frank",
  "5537": " Finny",
  "5538": " Follow",
  "5539": " Fairy",
  "5540": " Ellie",
  "5541": " Dinosaur",
  "5542": " Did",
  "5543": " Cl",
  "5544": " Buzzy",
  "5545": " Becky",
  "5546": " Brown",
  "5547": " Brian",
  "5548": " x",
  "5549": " X",
  "5550": "  ",
  "5551": "you",
  "5552": "xcuse",
  "5553": "wra",
  "5554": "wh",
  "5555": "why",
  "5556": "water",
  "5557": "ware",
  "5558": "vers",
  "5559": "veal",
  "5560": "vroom",
  "5561": "vender",
  "5562": "val",
  "5563": "uzzy",
  "5564": "utious",
  "5565": "utiously",
  "5566": "uture",
  "5567": "ution",
  "5568": "usted",
  "5569": "urry",
  "5570": "urday",
  "5571": "umbs",
  "5572": "ummies",
  "5573": "umble",
  "5574": "ulpt",
  "5575": "ulpture",
  "5576": "ugs",
  "5577": "uctions",
  "5578": "uctantly",
  "5579": "uckled",
  "5580": "uild",
  "5581": "ues",
  "5582": "uation",
  "5583": "tory",
  "5584": "tled",
  "5585": "te",
  "5586": "structions",
  "5587": "spired",
  "5588": "seek",
  "5589": "seball",
  "5590": "rrr",
  "5591": "romise",
  "5592": "rove",
  "5593": "roat",
  "5594": "rmomet",
  "5595": "rmometer",
  "5596": "rike",
  "5597": "ricks",
  "5598": "reverse",
  "5599": "reed",
  "5600": "reat",
  "5601": "razy",
  "5602": "raight",
  "5603": "ron",
  "5604": "rist",
  "5605": "ristm",
  "5606": "ristmas",
  "5607": "rig",
  "5608": "queak",
  "5609": "queaky",
  "5610": "ptoed",
  "5611": "pples",
  "5612": "plain",
  "5613": "pom",
  "5614": "pie",
  "5615": "piece",
  "5616": "pecially",
  "5617": "ows",
  "5618": "ousin",
  "5619": "ounds",
  "5620": "ouis",
  "5621": "osity",
  "5622": "ored",
  "5623": "order",
  "5624": "ooky",
  "5625": "ooks",
  "5626": "ongratulated",
  "5627": "onest",
  "5628": "ometimes",
  "5629": "oming",
  "5630": "omed",
  "5631": "omeday",
  "5632": "olled",
  "5633": "ocused",
  "5634": "oors",
  "5635": "oke",
  "5636": "oe",
  "5637": "ns",
  "5638": "nk",
  "5639": "njoy",
  "5640": "mory",
  "5641": "mbers",
  "5642": "mato",
  "5643": "leted",
  "5644": "lee",
  "5645": "lue",
  "5646": "live",
  "5647": "lings",
  "5648": "lier",
  "5649": "lanes",
  "5650": "iverse",
  "5651": "isten",
  "5652": "isks",
  "5653": "isingly",
  "5654": "ishing",
  "5655": "isfied",
  "5656": "inkles",
  "5657": "inkled",
  "5658": "int",
  "5659": "igning",
  "5660": "igeon",
  "5661": "igate",
  "5662": "iform",
  "5663": "idel",
  "5664": "idelines",
  "5665": "icing",
  "5666": "ibility",
  "5667": "iblings",
  "5668": "iptoed",
  "5669": "hest",
  "5670": "hausted",
  "5671": "hind",
  "5672": "hile",
  "5673": "fee",
  "5674": "found",
  "5675": "form",
  "5676": "fire",
  "5677": "ffee",
  "5678": "fast",
  "5679": "ety",
  "5680": "ets",
  "5681": "estigate",
  "5682": "ession",
  "5683": "eside",
  "5684": "ently",
  "5685": "endant",
  "5686": "ening",
  "5687": "ene",
  "5688": "emies",
  "5689": "emb",
  "5690": "embers",
  "5691": "edom",
  "5692": "edic",
  "5693": "edding",
  "5694": "eel",
  "5695": "eating",
  "5696": "eal",
  "5697": "doors",
  "5698": "date",
  "5699": "comed",
  "5700": "caped",
  "5701": "cal",
  "5702": "brate",
  "5703": "build",
  "5704": "bug",
  "5705": "brated",
  "5706": "bour",
  "5707": "bling",
  "5708": "ban",
  "5709": "bang",
  "5710": "bage",
  "5711": "azed",
  "5712": "ature",
  "5713": "aturday",
  "5714": "arling",
  "5715": "arget",
  "5716": "arbage",
  "5717": "apid",
  "5718": "angu",
  "5719": "anation",
  "5720": "anan",
  "5721": "anana",
  "5722": "ammed",
  "5723": "ambour",
  "5724": "amber",
  "5725": "ades",
  "5726": "aze",
  "5727": "aved",
  "5728": "aster",
  "5729": "Zippy",
  "5730": "Yesterday",
  "5731": "Whiskers",
  "5732": "Would",
  "5733": "With",
  "5734": "True",
  "5735": "Tweet",
  "5736": "Tony",
  "5737": "Surprise",
  "5738": "Shrink",
  "5739": "Sammy",
  "5740": "Sunny",
  "5741": "Splash",
  "5742": "Sometimes",
  "5743": "Silly",
  "5744": "Rudy",
  "5745": "Rose",
  "5746": "Remember",
  "5747": "Rec",
  "5748": "Really",
  "5749": "Ralph",
  "5750": "Quacky",
  "5751": "Put",
  "5752": "Pizza",
  "5753": "Our",
  "5754": "Or",
  "5755": "Ollie",
  "5756": "Olive",
  "5757": "Ok",
  "5758": "Nothing",
  "5759": "Near",
  "5760": "Momma",
  "5761": "Mmm",
  "5762": "Miss",
  "5763": "Maria",
  "5764": "Mandy",
  "5765": "Lena",
  "5766": "Jump",
  "5767": "Jethro",
  "5768": "Jen",
  "5769": "Jazz",
  "5770": "Happy",
  "5771": "Great",
  "5772": "Grace",
  "5773": "Freddy",
  "5774": "Freeze",
  "5775": "For",
  "5776": "First",
  "5777": "Fiona",
  "5778": "Excuse",
  "5779": "Elly",
  "5780": "Ducky",
  "5781": "Drink",
  "5782": "Chew",
  "5783": "Che",
  "5784": "Ch",
  "5785": "Cat",
  "5786": "Beware",
  "5787": "Before",
  "5788": "Brrr",
  "5789": "Blue",
  "5790": "Bird",
  "5791": "Bill",
  "5792": "Big",
  "5793": "Because",
  "5794": "Aw",
  "5795": "An",
  "5796": "Amelia",
  "5797": "Achoo",
  "5798": "Abby",
  "5799": ".'",
  "5800": ",'",
  "5801": "'?\"",
  "5802": "'.\"",
  "5803": "\",",
  "5804": "!'.",
  "5805": " â",
  "5806": " zebras",
  "5807": " zipped",
  "5808": " yesterday",
  "5809": " yawned",
  "5810": " yawn",
  "5811": " wraps",
  "5812": " wobbling",
  "5813": " wisdom",
  "5814": " wiping",
  "5815": " windy",
  "5816": " winner",
  "5817": " wherever",
  "5818": " whip",
  "5819": " welcomed",
  "5820": " wears",
  "5821": " weight",
  "5822": " waters",
  "5823": " wasting",
  "5824": " warnings",
  "5825": " warmer",
  "5826": " wanting",
  "5827": " wagging",
  "5828": " wander",
  "5829": " waist",
  "5830": " woof",
  "5831": " wife",
  "5832": " wid",
  "5833": " wedding",
  "5834": " vowed",
  "5835": " vines",
  "5836": " urged",
  "5837": " unpacked",
  "5838": " unlocked",
  "5839": " underwater",
  "5840": " underneath",
  "5841": " unwra",
  "5842": " universe",
  "5843": " united",
  "5844": " uniform",
  "5845": " unf",
  "5846": " twinkling",
  "5847": " turning",
  "5848": " truly",
  "5849": " trips",
  "5850": " tricked",
  "5851": " trembled",
  "5852": " trad",
  "5853": " touching",
  "5854": " tops",
  "5855": " tool",
  "5856": " tore",
  "5857": " tomato",
  "5858": " tickled",
  "5859": " tickle",
  "5860": " thrilled",
  "5861": " thermometer",
  "5862": " throat",
  "5863": " thorn",
  "5864": " terrified",
  "5865": " teamwork",
  "5866": " teased",
  "5867": " tastiest",
  "5868": " tastes",
  "5869": " tapping",
  "5870": " tune",
  "5871": " tummies",
  "5872": " tugged",
  "5873": " tiptoed",
  "5874": " tipped",
  "5875": " target",
  "5876": " tambour",
  "5877": " sweating",
  "5878": " swap",
  "5879": " surround",
  "5880": " studying",
  "5881": " struggled",
  "5882": " struggle",
  "5883": " strings",
  "5884": " stomach",
  "5885": " stolen",
  "5886": " stole",
  "5887": " sticking",
  "5888": " steer",
  "5889": " stung",
  "5890": " stumble",
  "5891": " straight",
  "5892": " stacked",
  "5893": " stable",
  "5894": " squirrels",
  "5895": " squashes",
  "5896": " squawk",
  "5897": " sprinkles",
  "5898": " spots",
  "5899": " sports",
  "5900": " spoons",
  "5901": " spoken",
  "5902": " spiders",
  "5903": " sparkle",
  "5904": " spooky",
  "5905": " spit",
  "5906": " spat",
  "5907": " spades",
  "5908": " space",
  "5909": " sorts",
  "5910": " solving",
  "5911": " sore",
  "5912": " sobbed",
  "5913": " soared",
  "5914": " snuggled",
  "5915": " snowballs",
  "5916": " snakes",
  "5917": " snug",
  "5918": " snuck",
  "5919": " slowed",
  "5920": " sleeps",
  "5921": " slice",
  "5922": " slammed",
  "5923": " skunk",
  "5924": " skipping",
  "5925": " situation",
  "5926": " sits",
  "5927": " sisters",
  "5928": " simple",
  "5929": " shrank",
  "5930": " shopkeeper",
  "5931": " shooting",
  "5932": " shivers",
  "5933": " shelves",
  "5934": " shadows",
  "5935": " shield",
  "5936": " settled",
  "5937": " seems",
  "5938": " seconds",
  "5939": " sewed",
  "5940": " seven",
  "5941": " scrubbing",
  "5942": " scribbled",
  "5943": " screaming",
  "5944": " scratching",
  "5945": " scratches",
  "5946": " scolds",
  "5947": " scattered",
  "5948": " sculpture",
  "5949": " satisfied",
  "5950": " sailor",
  "5951": " safety",
  "5952": " sadder",
  "5953": " sank",
  "5954": " sailing",
  "5955": " someday",
  "5956": " sings",
  "5957": " sides",
  "5958": " sidelines",
  "5959": " siblings",
  "5960": " rustling",
  "5961": " rubs",
  "5962": " rule",
  "5963": " ruining",
  "5964": " rubble",
  "5965": " rubb",
  "5966": " roars",
  "5967": " restore",
  "5968": " rested",
  "5969": " responsibility",
  "5970": " result",
  "5971": " request",
  "5972": " remembers",
  "5973": " reluctantly",
  "5974": " relief",
  "5975": " recommendation",
  "5976": " recognizing",
  "5977": " recorder",
  "5978": " realizes",
  "5979": " reveal",
  "5980": " rainbows",
  "5981": " raining",
  "5982": " rowed",
  "5983": " risks",
  "5984": " rapid",
  "5985": " quacked",
  "5986": " puzzled",
  "5987": " purr",
  "5988": " price",
  "5989": " prettier",
  "5990": " pressing",
  "5991": " prayed",
  "5992": " praised",
  "5993": " praise",
  "5994": " pots",
  "5995": " potato",
  "5996": " possession",
  "5997": " polish",
  "5998": " pockets",
  "5999": " playtime",
  "6000": " playdate",
  "6001": " planets",
  "6002": " planned",
  "6003": " plug",
  "6004": " piles",
  "6005": " photos",
  "6006": " pebbles",
  "6007": " peanut",
  "6008": " peel",
  "6009": " peek",
  "6010": " peach",
  "6011": " patiently",
  "6012": " paths",
  "6013": " pastel",
  "6014": " parts",
  "6015": " parties",
  "6016": " pans",
  "6017": " pancakes",
  "6018": " paints",
  "6019": " paddled",
  "6020": " poop",
  "6021": " pom",
  "6022": " pitch",
  "6023": " pant",
  "6024": " oysters",
  "6025": " outdoors",
  "6026": " olive",
  "6027": " oh",
  "6028": " newfound",
  "6029": " nervously",
  "6030": " neighborhood",
  "6031": " nature",
  "6032": " momma",
  "6033": " model",
  "6034": " moon",
  "6035": " moats",
  "6036": " minute",
  "6037": " melted",
  "6038": " meowed",
  "6039": " memory",
  "6040": " members",
  "6041": " matched",
  "6042": " masterpiece",
  "6043": " massages",
  "6044": " mug",
  "6045": " logs",
  "6046": " loading",
  "6047": " loaded",
  "6048": " loving",
  "6049": " locket",
  "6050": " local",
  "6051": " lighter",
  "6052": " lick",
  "6053": " lemonade",
  "6054": " ladybug",
  "6055": " lavender",
  "6056": " luck",
  "6057": " lines",
  "6058": " lend",
  "6059": " langu",
  "6060": " knights",
  "6061": " kneeled",
  "6062": " knelt",
  "6063": " kicks",
  "6064": " keeper",
  "6065": " kings",
  "6066": " kill",
  "6067": " joked",
  "6068": " jewels",
  "6069": " jack",
  "6070": " ironed",
  "6071": " invitations",
  "6072": " investigate",
  "6073": " interested",
  "6074": " indeed",
  "6075": " increased",
  "6076": " included",
  "6077": " include",
  "6078": " instructions",
  "6079": " inspired",
  "6080": " improve",
  "6081": " imagin",
  "6082": " human",
  "6083": " hopes",
  "6084": " holidays",
  "6085": " history",
  "6086": " highest",
  "6087": " hides",
  "6088": " hate",
  "6089": " handled",
  "6090": " hadn",
  "6091": " hour",
  "6092": " guessed",
  "6093": " guest",
  "6094": " groups",
  "6095": " grounds",
  "6096": " grinned",
  "6097": " grassy",
  "6098": " grown",
  "6099": " grant",
  "6100": " gotten",
  "6101": " goodnight",
  "6102": " glittery",
  "6103": " glasses",
  "6104": " gross",
  "6105": " gro",
  "6106": " glee",
  "6107": " gazed",
  "6108": " gaze",
  "6109": " garbage",
  "6110": " gained",
  "6111": " further",
  "6112": " frowns",
  "6113": " freedom",
  "6114": " fridge",
  "6115": " forgetting",
  "6116": " forgiving",
  "6117": " fooled",
  "6118": " fluttered",
  "6119": " floating",
  "6120": " flour",
  "6121": " flips",
  "6122": " flip",
  "6123": " flight",
  "6124": " flapping",
  "6125": " fires",
  "6126": " fireman",
  "6127": " fields",
  "6128": " farther",
  "6129": " fans",
  "6130": " famil",
  "6131": " fairies",
  "6132": " fault",
  "6133": " future",
  "6134": " focused",
  "6135": " file",
  "6136": " fer",
  "6137": " explo",
  "6138": " explanation",
  "6139": " exercising",
  "6140": " exhausted",
  "6141": " everyday",
  "6142": " especially",
  "6143": " escaped",
  "6144": " entire",
  "6145": " engines",
  "6146": " ends",
  "6147": " encoura",
  "6148": " encount",
  "6149": " enemies",
  "6150": " embarrass",
  "6151": " echoed",
  "6152": " eaten",
  "6153": " earlier",
  "6154": " eight",
  "6155": " dusty",
  "6156": " drums",
  "6157": " drinks",
  "6158": " drives",
  "6159": " dreamt",
  "6160": " draws",
  "6161": " drawn",
  "6162": " downstairs",
  "6163": " dodged",
  "6164": " dock",
  "6165": " dishonest",
  "6166": " discoveries",
  "6167": " disappear",
  "6168": " disagreed",
  "6169": " direction",
  "6170": " differently",
  "6171": " difference",
  "6172": " diving",
  "6173": " dipped",
  "6174": " destination",
  "6175": " designs",
  "6176": " designing",
  "6177": " decoration",
  "6178": " decorating",
  "6179": " decorated",
  "6180": " decides",
  "6181": " dancer",
  "6182": " dried",
  "6183": " dots",
  "6184": " dips",
  "6185": " darling",
  "6186": " curiously",
  "6187": " curly",
  "6188": " crunchy",
  "6189": " crocodiles",
  "6190": " creating",
  "6191": " crawling",
  "6192": " crumbs",
  "6193": " crops",
  "6194": " covers",
  "6195": " coughed",
  "6196": " copy",
  "6197": " copied",
  "6198": " cooed",
  "6199": " continue",
  "6200": " container",
  "6201": " content",
  "6202": " completely",
  "6203": " compromise",
  "6204": " completed",
  "6205": " complain",
  "6206": " comb",
  "6207": " colored",
  "6208": " collected",
  "6209": " collect",
  "6210": " cobwebs",
  "6211": " coffee",
  "6212": " clubhouse",
  "6213": " climbs",
  "6214": " claps",
  "6215": " clues",
  "6216": " chirped",
  "6217": " cheers",
  "6218": " changes",
  "6219": " challenging",
  "6220": " challenge",
  "6221": " chuckled",
  "6222": " chat",
  "6223": " chamber",
  "6224": " celebrated",
  "6225": " celebrate",
  "6226": " cape",
  "6227": " cans",
  "6228": " campfire",
  "6229": " cousin",
  "6230": " cot",
  "6231": " congratulated",
  "6232": " cent",
  "6233": " buzzing",
  "6234": " burying",
  "6235": " bulbs",
  "6236": " builders",
  "6237": " buckles",
  "6238": " buckle",
  "6239": " budge",
  "6240": " breathing",
  "6241": " breakfast",
  "6242": " bottles",
  "6243": " blowing",
  "6244": " bleeding",
  "6245": " blush",
  "6246": " blood",
  "6247": " belt",
  "6248": " believed",
  "6249": " behaved",
  "6250": " begged",
  "6251": " beeped",
  "6252": " becoming",
  "6253": " bathrobes",
  "6254": " bathe",
  "6255": " balancing",
  "6256": " backwards",
  "6257": " backs",
  "6258": " baseball",
  "6259": " bricks",
  "6260": " boo",
  "6261": " beside",
  "6262": " awhile",
  "6263": " auntie",
  "6264": " attic",
  "6265": " attendant",
  "6266": " attack",
  "6267": " appreciation",
  "6268": " appreciate",
  "6269": " apologized",
  "6270": " apron",
  "6271": " agreement",
  "6272": " ago",
  "6273": " afar",
  "6274": " admiration",
  "6275": " Zoe",
  "6276": " Want",
  "6277": " Wacky",
  "6278": " Time",
  "6279": " These",
  "6280": " Those",
  "6281": " Tur",
  "6282": " Tony",
  "6283": " Stay",
  "6284": " Squeaky",
  "6285": " Sp",
  "6286": " Slow",
  "6287": " Six",
  "6288": " Since",
  "6289": " Saturday",
  "6290": " Robe",
  "6291": " Pretend",
  "6292": " Planes",
  "6293": " Pigeon",
  "6294": " None",
  "6295": " Mandy",
  "6296": " Lizard",
  "6297": " Levi",
  "6298": " Louis",
  "6299": " Jethro",
  "6300": " Isn",
  "6301": " However",
  "6302": " Have",
  "6303": " Goodbye",
  "6304": " Giant",
  "6305": " Froggy",
  "6306": " Forg",
  "6307": " First",
  "6308": " Fiona",
  "6309": " Eventually",
  "6310": " Enjoy",
  "6311": " Each",
  "6312": " Club",
  "6313": " Christmas",
  "6314": " Clock",
  "6315": " Before",
  "6316": " By",
  "6317": " Books",
  "6318": " Birthday",
  "6319": " Because",
  "6320": " Banana",
  "6321": " ow",
  "6322": " ouch",
  "6323": " Yesterday",
  "6324": "zzy",
  "6325": "zip",
  "6326": "zing",
  "6327": "zag",
  "6328": "xoph",
  "6329": "xophone",
  "6330": "wo",
  "6331": "wim",
  "6332": "wimming",
  "6333": "whe",
  "6334": "wheels",
  "6335": "versing",
  "6336": "vering",
  "6337": "verance",
  "6338": "ventions",
  "6339": "venir",
  "6340": "venirs",
  "6341": "veness",
  "6342": "vest",
  "6343": "vation",
  "6344": "vast",
  "6345": "vastated",
  "6346": "vant",
  "6347": "vantage",
  "6348": "uzzles",
  "6349": "uty",
  "6350": "utor",
  "6351": "using",
  "6352": "urrying",
  "6353": "urprisingly",
  "6354": "urple",
  "6355": "urky",
  "6356": "urb",
  "6357": "unching",
  "6358": "unked",
  "6359": "unity",
  "6360": "uniting",
  "6361": "unches",
  "6362": "ummer",
  "6363": "uming",
  "6364": "ument",
  "6365": "ulture",
  "6366": "ultures",
  "6367": "ulp",
  "6368": "ulf",
  "6369": "uggles",
  "6370": "uddled",
  "6371": "uddered",
  "6372": "ucked",
  "6373": "use",
  "6374": "usement",
  "6375": "uri",
  "6376": "uriosity",
  "6377": "und",
  "6378": "unday",
  "6379": "uises",
  "6380": "uess",
  "6381": "udy",
  "6382": "udying",
  "6383": "udge",
  "6384": "toes",
  "6385": "ths",
  "6386": "throw",
  "6387": "throwing",
  "6388": "through",
  "6389": "though",
  "6390": "ters",
  "6391": "tiv",
  "6392": "tivated",
  "6393": "tally",
  "6394": "tage",
  "6395": "stron",
  "6396": "strona",
  "6397": "stronauts",
  "6398": "steady",
  "6399": "strike",
  "6400": "stand",
  "6401": "standing",
  "6402": "ssible",
  "6403": "sses",
  "6404": "squawk",
  "6405": "specially",
  "6406": "sol",
  "6407": "solve",
  "6408": "sery",
  "6409": "servation",
  "6410": "severance",
  "6411": "sequ",
  "6412": "sequen",
  "6413": "sequences",
  "6414": "semb",
  "6415": "sembled",
  "6416": "scin",
  "6417": "scinated",
  "6418": "sn",
  "6419": "snap",
  "6420": "sm",
  "6421": "smell",
  "6422": "smelling",
  "6423": "sing",
  "6424": "shing",
  "6425": "sher",
  "6426": "she",
  "6427": "send",
  "6428": "saur",
  "6429": "rossed",
  "6430": "roma",
  "6431": "roached",
  "6432": "rigued",
  "6433": "riggle",
  "6434": "riends",
  "6435": "rible",
  "6436": "ribbit",
  "6437": "riately",
  "6438": "riangle",
  "6439": "rework",
  "6440": "reworks",
  "6441": "retty",
  "6442": "rens",
  "6443": "rench",
  "6444": "renching",
  "6445": "reliable",
  "6446": "rectly",
  "6447": "reams",
  "6448": "reshing",
  "6449": "rent",
  "6450": "reled",
  "6451": "reedy",
  "6452": "raying",
  "6453": "rap",
  "6454": "rapher",
  "6455": "rack",
  "6456": "rus",
  "6457": "rumpy",
  "6458": "ror",
  "6459": "rop",
  "6460": "ropriately",
  "6461": "roof",
  "6462": "rolled",
  "6463": "ris",
  "6464": "rin",
  "6465": "rints",
  "6466": "rily",
  "6467": "ran",
  "6468": "ranged",
  "6469": "quet",
  "6470": "quered",
  "6471": "pts",
  "6472": "pting",
  "6473": "ppings",
  "6474": "plish",
  "6475": "plishment",
  "6476": "planes",
  "6477": "peedy",
  "6478": "prints",
  "6479": "ply",
  "6480": "please",
  "6481": "pite",
  "6482": "pirit",
  "6483": "pirits",
  "6484": "parent",
  "6485": "parents",
  "6486": "pack",
  "6487": "oyed",
  "6488": "owing",
  "6489": "outs",
  "6490": "oured",
  "6491": "ounced",
  "6492": "ouvenirs",
  "6493": "ouquet",
  "6494": "ouched",
  "6495": "ostume",
  "6496": "oses",
  "6497": "orses",
  "6498": "ordination",
  "6499": "orrectly",
  "6500": "ophies",
  "6501": "opes",
  "6502": "oped",
  "6503": "ooping",
  "6504": "ooded",
  "6505": "oogly",
  "6506": "ooed",
  "6507": "ongratulations",
  "6508": "omets",
  "6509": "omelet",
  "6510": "omelette",
  "6511": "omplishment",
  "6512": "oloured",
  "6513": "ographer",
  "6514": "ocious",
  "6515": "oves",
  "6516": "oved",
  "6517": "ossible",
  "6518": "opped",
  "6519": "oor",
  "6520": "okes",
  "6521": "oken",
  "6522": "ok",
  "6523": "oid",
  "6524": "oic",
  "6525": "oices",
  "6526": "oh",
  "6527": "oes",
  "6528": "od",
  "6529": "odies",
  "6530": "oar",
  "6531": "nytime",
  "6532": "nderstanding",
  "6533": "nds",
  "6534": "naments",
  "6535": "nother",
  "6536": "no",
  "6537": "nif",
  "6538": "nific",
  "6539": "nificent",
  "6540": "nc",
  "6541": "nas",
  "6542": "myard",
  "6543": "munity",
  "6544": "mly",
  "6545": "mates",
  "6546": "mate",
  "6547": "match",
  "6548": "lyly",
  "6549": "llas",
  "6550": "leness",
  "6551": "ledge",
  "6552": "leasing",
  "6553": "lect",
  "6554": "lection",
  "6555": "leased",
  "6556": "lea",
  "6557": "lutter",
  "6558": "lthough",
  "6559": "lost",
  "6560": "lo",
  "6561": "lig",
  "6562": "lige",
  "6563": "lied",
  "6564": "lakes",
  "6565": "lace",
  "6566": "kends",
  "6567": "joyed",
  "6568": "just",
  "6569": "jected",
  "6570": "izzled",
  "6571": "ivity",
  "6572": "ivation",
  "6573": "ittered",
  "6574": "ithered",
  "6575": "itive",
  "6576": "ities",
  "6577": "itely",
  "6578": "itam",
  "6579": "itamins",
  "6580": "isting",
  "6581": "istened",
  "6582": "ission",
  "6583": "ishy",
  "6584": "isplay",
  "6585": "isle",
  "6586": "isies",
  "6587": "ishes",
  "6588": "isherman",
  "6589": "ironment",
  "6590": "irer",
  "6591": "irmly",
  "6592": "irk",
  "6593": "irc",
  "6594": "ircled",
  "6595": "ippo",
  "6596": "iped",
  "6597": "ipation",
  "6598": "interest",
  "6599": "interesting",
  "6600": "indness",
  "6601": "inse",
  "6602": "inning",
  "6603": "inion",
  "6604": "inet",
  "6605": "imp",
  "6606": "illier",
  "6607": "ilway",
  "6608": "ilence",
  "6609": "ighting",
  "6610": "igzag",
  "6611": "igs",
  "6612": "igion",
  "6613": "ighing",
  "6614": "iggled",
  "6615": "ieves",
  "6616": "idents",
  "6617": "idently",
  "6618": "iding",
  "6619": "iders",
  "6620": "icipation",
  "6621": "iciest",
  "6622": "icer",
  "6623": "ibilities",
  "6624": "ibly",
  "6625": "iveness",
  "6626": "ireworks",
  "6627": "irens",
  "6628": "iar",
  "6629": "hello",
  "6630": "heese",
  "6631": "hee",
  "6632": "haft",
  "6633": "hot",
  "6634": "hi",
  "6635": "har",
  "6636": "harmed",
  "6637": "getic",
  "6638": "gic",
  "6639": "gh",
  "6640": "formed",
  "6641": "feat",
  "6642": "faced",
  "6643": "fun",
  "6644": "friend",
  "6645": "free",
  "6646": "flow",
  "6647": "fless",
  "6648": "flakes",
  "6649": "fit",
  "6650": "fine",
  "6651": "find",
  "6652": "fidently",
  "6653": "excuse",
  "6654": "etitive",
  "6655": "eted",
  "6656": "etch",
  "6657": "etchup",
  "6658": "etail",
  "6659": "esy",
  "6660": "esome",
  "6661": "eshaft",
  "6662": "ervice",
  "6663": "errified",
  "6664": "erosity",
  "6665": "erve",
  "6666": "ern",
  "6667": "erked",
  "6668": "ergic",
  "6669": "erfully",
  "6670": "erced",
  "6671": "epy",
  "6672": "eped",
  "6673": "entioned",
  "6674": "entured",
  "6675": "enting",
  "6676": "eneath",
  "6677": "enderly",
  "6678": "ended",
  "6679": "ennas",
  "6680": "empts",
  "6681": "elped",
  "6682": "elieve",
  "6683": "eks",
  "6684": "edicted",
  "6685": "edication",
  "6686": "ectangle",
  "6687": "ectac",
  "6688": "ectacular",
  "6689": "ecting",
  "6690": "eched",
  "6691": "eaked",
  "6692": "epper",
  "6693": "ekends",
  "6694": "ef",
  "6695": "eese",
  "6696": "eep",
  "6697": "eat",
  "6698": "ds",
  "6699": "ctually",
  "6700": "ctly",
  "6701": "coming",
  "6702": "ckly",
  "6703": "ckled",
  "6704": "child",
  "6705": "cerned",
  "6706": "ceries",
  "6707": "ccidents",
  "6708": "cut",
  "6709": "cue",
  "6710": "cters",
  "6711": "cream",
  "6712": "coloured",
  "6713": "ckey",
  "6714": "cher",
  "6715": "cery",
  "6716": "cause",
  "6717": "building",
  "6718": "brown",
  "6719": "brations",
  "6720": "boxes",
  "6721": "beep",
  "6722": "beara",
  "6723": "bearable",
  "6724": "bs",
  "6725": "bor",
  "6726": "boo",
  "6727": "bit",
  "6728": "believe",
  "6729": "because",
  "6730": "awked",
  "6731": "atteries",
  "6732": "attered",
  "6733": "atey",
  "6734": "atted",
  "6735": "ative",
  "6736": "atform",
  "6737": "astly",
  "6738": "asing",
  "6739": "ashing",
  "6740": "artled",
  "6741": "arlings",
  "6742": "arkable",
  "6743": "arest",
  "6744": "ardless",
  "6745": "aracters",
  "6746": "arty",
  "6747": "arm",
  "6748": "arled",
  "6749": "arinet",
  "6750": "antastic",
  "6751": "ansformed",
  "6752": "angles",
  "6753": "anted",
  "6754": "anny",
  "6755": "angled",
  "6756": "anges",
  "6757": "aned",
  "6758": "anced",
  "6759": "ampered",
  "6760": "amped",
  "6761": "amage",
  "6762": "alloped",
  "6763": "alling",
  "6764": "aly",
  "6765": "aken",
  "6766": "ails",
  "6767": "ady",
  "6768": "ads",
  "6769": "ados",
  "6770": "ada",
  "6771": "away",
  "6772": "aven",
  "6773": "autiously",
  "6774": "aughty",
  "6775": "appy",
  "6776": "aked",
  "6777": "actly",
  "6778": "aced",
  "6779": "abbit",
  "6780": "Zip",
  "6781": "Ziggy",
  "6782": "Zara",
  "6783": "Yummy",
  "6784": "Yet",
  "6785": "Wee",
  "6786": "Wild",
  "6787": "Whee",
  "6788": "Want",
  "6789": "Wake",
  "6790": "Waffle",
  "6791": "Use",
  "6792": "Up",
  "6793": "Understanding",
  "6794": "Uh",
  "6795": "Ugh",
  "6796": "Trust",
  "6797": "Trade",
  "6798": "Thankfully",
  "6799": "Throw",
  "6800": "Three",
  "6801": "Try",
  "6802": "Tree",
  "6803": "Tiny",
  "6804": "TH",
  "6805": "THE",
  "6806": "Surprised",
  "6807": "Studying",
  "6808": "Strike",
  "6809": "Strawberries",
  "6810": "Still",
  "6811": "Steel",
  "6812": "Star",
  "6813": "Stand",
  "6814": "Shouts",
  "6815": "Should",
  "6816": "Shoo",
  "6817": "Seeing",
  "6818": "Swimming",
  "6819": "Sun",
  "6820": "Spirits",
  "6821": "Speedy",
  "6822": "Soup",
  "6823": "Six",
  "6824": "Sad",
  "6825": "Rude",
  "6826": "Ruby",
  "6827": "Record",
  "6828": "Recommend",
  "6829": "Run",
  "6830": "Rosie",
  "6831": "Roof",
  "6832": "Ronnie",
  "6833": "Roar",
  "6834": "Rex",
  "6835": "Red",
  "6836": "Rain",
  "6837": "Rachel",
  "6838": "Quick",
  "6839": "Purple",
  "6840": "Pretty",
  "6841": "Pretend",
  "6842": "Pilot",
  "6843": "Pete",
  "6844": "Pepper",
  "6845": "Pass",
  "6846": "Only",
  "6847": "Over",
  "6848": "Out",
  "6849": "Nearby",
  "6850": "Naughty",
  "6851": "NG",
  "6852": "Miaow",
  "6853": "Meow",
  "6854": "Meal",
  "6855": "Move",
  "6856": "Monica",
  "6857": "Moby",
  "6858": "Mo",
  "6859": "Many",
  "6860": "Manny",
  "6861": "Levi",
  "6862": "Lydia",
  "6863": "Lulu",
  "6864": "Listen",
  "6865": "Like",
  "6866": "Life",
  "6867": "King",
  "6868": "June",
  "6869": "Jessie",
  "6870": "Jake",
  "6871": "Isn",
  "6872": "However",
  "6873": "Hippy",
  "6874": "Hurry",
  "6875": "Hop",
  "6876": "Hmm",
  "6877": "Harry",
  "6878": "Goodnight",
  "6879": "Guess",
  "6880": "Grow",
  "6881": "Gerry",
  "6882": "George",
  "6883": "Frustrated",
  "6884": "Frog",
  "6885": "Friends",
  "6886": "Fred",
  "6887": "Follow",
  "6888": "Fisherman",
  "6889": "Fish",
  "6890": "Feed",
  "6891": "Ew",
  "6892": "Eat",
  "6893": "Dangerous",
  "6894": "Dreams",
  "6895": "Display",
  "6896": "Deal",
  "6897": "Danger",
  "6898": "Cheers",
  "6899": "Cheerfully",
  "6900": "Chirpy",
  "6901": "Chirp",
  "6902": "Crazy",
  "6903": "Crack",
  "6904": "Costume",
  "6905": "Congratulations",
  "6906": "Coco",
  "6907": "Clock",
  "6908": "Cautiously",
  "6909": "Catch",
  "6910": "Car",
  "6911": "Birdy",
  "6912": "Benny",
  "6913": "Behind",
  "6914": "Buzzy",
  "6915": "Buzz",
  "6916": "Boom",
  "6917": "Bibi",
  "6918": "Bessie",
  "6919": "Bear",
  "6920": "Ball",
  "6921": "Back",
  "6922": "Baby",
  "6923": "BA",
  "6924": "BANG",
  "6925": "Aww",
  "6926": "Ahoy",
  "6927": "Apples",
  "6928": "Amanda",
  "6929": "Ally",
  "6930": "Actually",
  "6931": "?'",
  "6932": "10",
  "6933": "...\"",
  "6934": "'ve",
  "6935": "',\"",
  "6936": "!â.",
  "6937": "!?\",",
  "6938": "!,â",
  "6939": " zone",
  "6940": " zigzag",
  "6941": " yourselves",
  "6942": " yielded",
  "6943": " yells",
  "6944": " yelling",
  "6945": " yelped",
  "6946": " writer",
  "6947": " wrappers",
  "6948": " written",
  "6949": " wrist",
  "6950": " wrinkled",
  "6951": " works",
  "6952": " workers",
  "6953": " worn",
  "6954": " wondering",
  "6955": " wobbled",
  "6956": " wobble",
  "6957": " winked",
  "6958": " wiggle",
  "6959": " widening",
  "6960": " widened",
  "6961": " whistled",
  "6962": " whiz",
  "6963": " whipped",
  "6964": " whine",
  "6965": " weren",
  "6966": " weighs",
  "6967": " weeks",
  "6968": " weapons",
  "6969": " weaker",
  "6970": " wept",
  "6971": " weighing",
  "6972": " weighed",
  "6973": " weekends",
  "6974": " webs",
  "6975": " weather",
  "6976": " watering",
  "6977": " waste",
  "6978": " warmth",
  "6979": " wandered",
  "6980": " walrus",
  "6981": " wanna",
  "6982": " wakes",
  "6983": " wailed",
  "6984": " waded",
  "6985": " wow",
  "6986": " wounds",
  "6987": " wound",
  "6988": " visitors",
  "6989": " vibrations",
  "6990": " vanish",
  "6991": " valleys",
  "6992": " voices",
  "6993": " vitamins",
  "6994": " ventured",
  "6995": " vases",
  "6996": " vain",
  "6997": " usual",
  "6998": " urges",
  "6999": " unwrapping",
  "7000": " unwrap",
  "7001": " untied",
  "7002": " untangles",
  "7003": " unlike",
  "7004": " uniforms",
  "7005": " unfold",
  "7006": " unfair",
  "7007": " unzip",
  "7008": " unsteady",
  "7009": " unrolled",
  "7010": " unharmed",
  "7011": " unbearable",
  "7012": " unable",
  "7013": " umbrellas",
  "7014": " twists",
  "7015": " twisting",
  "7016": " twirls",
  "7017": " twirl",
  "7018": " twinkled",
  "7019": " twin",
  "7020": " twigs",
  "7021": " tweet",
  "7022": " turkeys",
  "7023": " trusts",
  "7024": " trumpeter",
  "7025": " trudged",
  "7026": " triangles",
  "7027": " treated",
  "7028": " travels",
  "7029": " trading",
  "7030": " traded",
  "7031": " trophies",
  "7032": " transformed",
  "7033": " towered",
  "7034": " towels",
  "7035": " tournaments",
  "7036": " touches",
  "7037": " tools",
  "7038": " tomatoes",
  "7039": " totally",
  "7040": " tosses",
  "7041": " tossed",
  "7042": " toppings",
  "7043": " tone",
  "7044": " toaster",
  "7045": " tickles",
  "7046": " tickets",
  "7047": " ticket",
  "7048": " thud",
  "7049": " throughout",
  "7050": " threat",
  "7051": " thinner",
  "7052": " thankfulness",
  "7053": " thus",
  "7054": " thugs",
  "7055": " third",
  "7056": " thieves",
  "7057": " tempting",
  "7058": " teaches",
  "7059": " tasting",
  "7060": " taps",
  "7061": " tambourines",
  "7062": " tambourine",
  "7063": " tallest",
  "7064": " taller",
  "7065": " tails",
  "7066": " tables",
  "7067": " tapped",
  "7068": " tackled",
  "7069": " tutor",
  "7070": " tumbled",
  "7071": " tucked",
  "7072": " tippy",
  "7073": " tipping",
  "7074": " tinkling",
  "7075": " tenderly",
  "7076": " tangled",
  "7077": " sync",
  "7078": " swims",
  "7079": " swimmer",
  "7080": " sweetest",
  "7081": " sweeter",
  "7082": " swipes",
  "7083": " swiped",
  "7084": " swapping",
  "7085": " swans",
  "7086": " swan",
  "7087": " surrounding",
  "7088": " surrounded",
  "7089": " surrendering",
  "7090": " surrendered",
  "7091": " surprisingly",
  "7092": " surprises",
  "7093": " surfaced",
  "7094": " supported",
  "7095": " supplied",
  "7096": " suitable",
  "7097": " suggests",
  "7098": " succeeded",
  "7099": " stuffed",
  "7100": " student",
  "7101": " strip",
  "7102": " streets",
  "7103": " streaming",
  "7104": " streamers",
  "7105": " strolled",
  "7106": " strokes",
  "7107": " stroke",
  "7108": " stomp",
  "7109": " steep",
  "7110": " steady",
  "7111": " staying",
  "7112": " stitched",
  "7113": " stitch",
  "7114": " stink",
  "7115": " stings",
  "7116": " stern",
  "7117": " stench",
  "7118": " stash",
  "7119": " stamped",
  "7120": " squeezing",
  "7121": " squeal",
  "7122": " squashed",
  "7123": " squishy",
  "7124": " squinted",
  "7125": " squawked",
  "7126": " squatted",
  "7127": " springing",
  "7128": " sprays",
  "7129": " spoil",
  "7130": " splashes",
  "7131": " splitting",
  "7132": " spits",
  "7133": " spending",
  "7134": " spewed",
  "7135": " speaking",
  "7136": " spins",
  "7137": " spectacular",
  "7138": " spattered",
  "7139": " soundly",
  "7140": " sooner",
  "7141": " solution",
  "7142": " softened",
  "7143": " soaps",
  "7144": " socks",
  "7145": " sobbing",
  "7146": " soaked",
  "7147": " snuggly",
  "7148": " snugly",
  "7149": " snows",
  "7150": " snowflakes",
  "7151": " sniffs",
  "7152": " sneakers",
  "7153": " snaps",
  "7154": " snuggles",
  "7155": " snort",
  "7156": " snooping",
  "7157": " sneaked",
  "7158": " snarled",
  "7159": " smoothly",
  "7160": " smiley",
  "7161": " smallest",
  "7162": " smirk",
  "7163": " smash",
  "7164": " slipping",
  "7165": " sludge",
  "7166": " slopes",
  "7167": " slithered",
  "7168": " skirts",
  "7169": " skill",
  "7170": " single",
  "7171": " sincere",
  "7172": " simply",
  "7173": " silently",
  "7174": " sighs",
  "7175": " shrinks",
  "7176": " shrunk",
  "7177": " shrugs",
  "7178": " shovels",
  "7179": " shoulders",
  "7180": " shops",
  "7181": " shivered",
  "7182": " shirts",
  "7183": " shed",
  "7184": " shares",
  "7185": " shuddered",
  "7186": " shown",
  "7187": " shall",
  "7188": " shaken",
  "7189": " sets",
  "7190": " sends",
  "7191": " sending",
  "7192": " selfless",
  "7193": " seeker",
  "7194": " secretly",
  "7195": " sew",
  "7196": " season",
  "7197": " scrubbed",
  "7198": " scribbling",
  "7199": " scribble",
  "7200": " screens",
  "7201": " screeched",
  "7202": " scarves",
  "7203": " scurrying",
  "7204": " scores",
  "7205": " scored",
  "7206": " score",
  "7207": " scoop",
  "7208": " science",
  "7209": " scene",
  "7210": " scaring",
  "7211": " scampered",
  "7212": " scaly",
  "7213": " sandcastles",
  "7214": " salads",
  "7215": " salty",
  "7216": " sailors",
  "7217": " saxophone",
  "7218": " sale",
  "7219": " sacks",
  "7220": " summer",
  "7221": " sowing",
  "7222": " souvenirs",
  "7223": " slyly",
  "7224": " sizzled",
  "7225": " sirens",
  "7226": " sip",
  "7227": " sillier",
  "7228": " silk",
  "7229": " service",
  "7230": " rusty",
  "7231": " runner",
  "7232": " rubbish",
  "7233": " rubber",
  "7234": " ruin",
  "7235": " rubbing",
  "7236": " rotten",
  "7237": " roller",
  "7238": " rods",
  "7239": " rockets",
  "7240": " rocky",
  "7241": " root",
  "7242": " rocked",
  "7243": " rider",
  "7244": " ribbons",
  "7245": " ripples",
  "7246": " ripped",
  "7247": " rip",
  "7248": " riches",
  "7249": " revealed",
  "7250": " returning",
  "7251": " restored",
  "7252": " responsible",
  "7253": " response",
  "7254": " resists",
  "7255": " rescue",
  "7256": " requested",
  "7257": " replyed",
  "7258": " replies",
  "7259": " repeating",
  "7260": " reminds",
  "7261": " removed",
  "7262": " remarkable",
  "7263": " remain",
  "7264": " religion",
  "7265": " regardless",
  "7266": " refreshing",
  "7267": " reflection",
  "7268": " recommending",
  "7269": " recipe",
  "7270": " realizing",
  "7271": " realize",
  "7272": " reads",
  "7273": " reward",
  "7274": " reversing",
  "7275": " reuniting",
  "7276": " resolve",
  "7277": " rely",
  "7278": " releasing",
  "7279": " released",
  "7280": " rejected",
  "7281": " reef",
  "7282": " reeds",
  "7283": " rebuild",
  "7284": " reason",
  "7285": " rapids",
  "7286": " rapidly",
  "7287": " ranger",
  "7288": " raking",
  "7289": " railway",
  "7290": " rises",
  "7291": " rinse",
  "7292": " rather",
  "7293": " rake",
  "7294": " quietly",
  "7295": " quieter",
  "7296": " questioned",
  "7297": " queens",
  "7298": " quarreled",
  "7299": " quacks",
  "7300": " quacking",
  "7301": " quench",
  "7302": " purrs",
  "7303": " purposes",
  "7304": " purred",
  "7305": " puppies",
  "7306": " protecting",
  "7307": " protected",
  "7308": " promises",
  "7309": " proven",
  "7310": " prints",
  "7311": " princesses",
  "7312": " printed",
  "7313": " prized",
  "7314": " prickly",
  "7315": " preventing",
  "7316": " prettiest",
  "7317": " presents",
  "7318": " presentation",
  "7319": " preschool",
  "7320": " practicing",
  "7321": " props",
  "7322": " predicted",
  "7323": " pouring",
  "7324": " possible",
  "7325": " possibilities",
  "7326": " politely",
  "7327": " polishing",
  "7328": " polished",
  "7329": " polar",
  "7330": " pointy",
  "7331": " poster",
  "7332": " popping",
  "7333": " pleasure",
  "7334": " plead",
  "7335": " playgrounds",
  "7336": " playroom",
  "7337": " playmates",
  "7338": " planting",
  "7339": " plot",
  "7340": " platform",
  "7341": " plain",
  "7342": " placed",
  "7343": " pierced",
  "7344": " photographer",
  "7345": " permission",
  "7346": " performing",
  "7347": " perseverance",
  "7348": " perched",
  "7349": " peeking",
  "7350": " pedaled",
  "7351": " pedalling",
  "7352": " peacefulness",
  "7353": " peacefully",
  "7354": " peeped",
  "7355": " peas",
  "7356": " peak",
  "7357": " paying",
  "7358": " patience",
  "7359": " pastels",
  "7360": " passing",
  "7361": " parked",
  "7362": " pants",
  "7363": " panting",
  "7364": " painful",
  "7365": " paddling",
  "7366": " pads",
  "7367": " paddle",
  "7368": " packing",
  "7369": " pulp",
  "7370": " pounds",
  "7371": " pleas",
  "7372": " paused",
  "7373": " overjoyed",
  "7374": " overhead",
  "7375": " overflow",
  "7376": " overcoming",
  "7377": " outing",
  "7378": " outfit",
  "7379": " ourselves",
  "7380": " organizing",
  "7381": " oranges",
  "7382": " opening",
  "7383": " opinion",
  "7384": " ope",
  "7385": " onwards",
  "7386": " offers",
  "7387": " oblige",
  "7388": " oink",
  "7389": " nursery",
  "7390": " notebooks",
  "7391": " noses",
  "7392": " newspapers",
  "7393": " neighbourhood",
  "7394": " neighs",
  "7395": " needles",
  "7396": " necklace",
  "7397": " nearly",
  "7398": " neither",
  "7399": " nearest",
  "7400": " napkins",
  "7401": " napping",
  "7402": " napped",
  "7403": " nuzzles",
  "7404": " nicer",
  "7405": " mustn",
  "7406": " mushrooms",
  "7407": " mushy",
  "7408": " mummies",
  "7409": " motivation",
  "7410": " monument",
  "7411": " months",
  "7412": " monsters",
  "7413": " mopping",
  "7414": " moaned",
  "7415": " mission",
  "7416": " misses",
  "7417": " mineshaft",
  "7418": " messes",
  "7419": " melodies",
  "7420": " meaning",
  "7421": " meanie",
  "7422": " meadows",
  "7423": " meows",
  "7424": " matters",
  "7425": " matching",
  "7426": " mats",
  "7427": " marching",
  "7428": " magnificent",
  "7429": " machines",
  "7430": " mailed",
  "7431": " murky",
  "7432": " munching",
  "7433": " munches",
  "7434": " mooed",
  "7435": " mitt",
  "7436": " mentioned",
  "7437": " matey",
  "7438": " lunchboxes",
  "7439": " lowers",
  "7440": " longing",
  "7441": " loads",
  "7442": " loses",
  "7443": " lolly",
  "7444": " lightning",
  "7445": " lighting",
  "7446": " lifts",
  "7447": " lifeless",
  "7448": " licking",
  "7449": " librarian",
  "7450": " lied",
  "7451": " lessons",
  "7452": " learns",
  "7453": " leaning",
  "7454": " leading",
  "7455": " leader",
  "7456": " leaking",
  "7457": " levers",
  "7458": " lever",
  "7459": " leap",
  "7460": " languages",
  "7461": " language",
  "7462": " lush",
  "7463": " lumpy",
  "7464": " littered",
  "7465": " linked",
  "7466": " limp",
  "7467": " lime",
  "7468": " lily",
  "7469": " knowingly",
  "7470": " knowledge",
  "7471": " kneeling",
  "7472": " kneels",
  "7473": " knob",
  "7474": " knife",
  "7475": " kittens",
  "7476": " kites",
  "7477": " kindly",
  "7478": " kindest",
  "7479": " kinder",
  "7480": " killed",
  "7481": " keys",
  "7482": " kayaking",
  "7483": " ketchup",
  "7484": " jumper",
  "7485": " juiciest",
  "7486": " journeys",
  "7487": " jobs",
  "7488": " jams",
  "7489": " jackets",
  "7490": " jacket",
  "7491": " jumbled",
  "7492": " jiggled",
  "7493": " jerked",
  "7494": " itchy",
  "7495": " itches",
  "7496": " isn",
  "7497": " ironing",
  "7498": " intrigued",
  "7499": " intended",
  "7500": " insisting",
  "7501": " incredibly",
  "7502": " including",
  "7503": " inventions",
  "7504": " inch",
  "7505": " impossible",
  "7506": " imaginative",
  "7507": " imaginable",
  "7508": " imagining",
  "7509": " images",
  "7510": " ignoring",
  "7511": " ignorance",
  "7512": " ignition",
  "7513": " hunters",
  "7514": " howled",
  "7515": " however",
  "7516": " hotter",
  "7517": " horror",
  "7518": " horrible",
  "7519": " hopeful",
  "7520": " hoops",
  "7521": " honks",
  "7522": " honking",
  "7523": " honked",
  "7524": " hovering",
  "7525": " hockey",
  "7526": " hits",
  "7527": " hisses",
  "7528": " hissed",
  "7529": " hideaway",
  "7530": " hider",
  "7531": " hesitation",
  "7532": " hesitated",
  "7533": " hesitantly",
  "7534": " hesitant",
  "7535": " heroes",
  "7536": " hearts",
  "7537": " healed",
  "7538": " heading",
  "7539": " hens",
  "7540": " hen",
  "7541": " heaven",
  "7542": " hates",
  "7543": " hatched",
  "7544": " hatch",
  "7545": " hardly",
  "7546": " harvest",
  "7547": " harsher",
  "7548": " harbor",
  "7549": " handsome",
  "7550": " handful",
  "7551": " haircut",
  "7552": " hated",
  "7553": " halo",
  "7554": " habit",
  "7555": " huddled",
  "7556": " hooded",
  "7557": " hire",
  "7558": " hippo",
  "7559": " hint",
  "7560": " hike",
  "7561": " guns",
  "7562": " guests",
  "7563": " guards",
  "7564": " growling",
  "7565": " grocery",
  "7566": " groceries",
  "7567": " greens",
  "7568": " grey",
  "7569": " greeted",
  "7570": " grandsons",
  "7571": " grandparents",
  "7572": " grandchild",
  "7573": " granted",
  "7574": " goodness",
  "7575": " gobble",
  "7576": " glowed",
  "7577": " gleefully",
  "7578": " glued",
  "7579": " gloves",
  "7580": " glistened",
  "7581": " gliding",
  "7582": " girly",
  "7583": " giggles",
  "7584": " giants",
  "7585": " given",
  "7586": " ghosts",
  "7587": " gentleness",
  "7588": " generosity",
  "7589": " gathering",
  "7590": " gardens",
  "7591": " googly",
  "7592": " geese",
  "7593": " gawk",
  "7594": " galloped",
  "7595": " gain",
  "7596": " frightening",
  "7597": " friendships",
  "7598": " foxes",
  "7599": " forgets",
  "7600": " forests",
  "7601": " forehead",
  "7602": " forming",
  "7603": " footprints",
  "7604": " floors",
  "7605": " floppy",
  "7606": " flat",
  "7607": " flashing",
  "7608": " flames",
  "7609": " finishing",
  "7610": " finishes",
  "7611": " fills",
  "7612": " filling",
  "7613": " figures",
  "7614": " fizzy",
  "7615": " fiber",
  "7616": " fetches",
  "7617": " fetched",
  "7618": " festive",
  "7619": " ferris",
  "7620": " ferocious",
  "7621": " feeds",
  "7622": " fears",
  "7623": " feast",
  "7624": " farmyard",
  "7625": " families",
  "7626": " familiar",
  "7627": " fascinated",
  "7628": " fairer",
  "7629": " failed",
  "7630": " fail",
  "7631": " fact",
  "7632": " faced",
  "7633": " fuzzy",
  "7634": " fuming",
  "7635": " fought",
  "7636": " flea",
  "7637": " fished",
  "7638": " firmly",
  "7639": " fantastic",
  "7640": " fame",
  "7641": " exploration",
  "7642": " exploded",
  "7643": " explode",
  "7644": " examined",
  "7645": " expected",
  "7646": " exactly",
  "7647": " everybody",
  "7648": " environment",
  "7649": " entranced",
  "7650": " enthusiastically",
  "7651": " enjoyment",
  "7652": " engulf",
  "7653": " engrossed",
  "7654": " energetic",
  "7655": " encouragement",
  "7656": " encouraging",
  "7657": " encouraged",
  "7658": " encountered",
  "7659": " encounter",
  "7660": " elephants",
  "7661": " elated",
  "7662": " eggshell",
  "7663": " echoes",
  "7664": " easier",
  "7665": " earn",
  "7666": " drummer",
  "7667": " dropping",
  "7668": " dripped",
  "7669": " drip",
  "7670": " drifted",
  "7671": " drift",
  "7672": " dreamily",
  "7673": " dragged",
  "7674": " donkey",
  "7675": " doctors",
  "7676": " disturb",
  "7677": " displays",
  "7678": " disgusted",
  "7679": " discussed",
  "7680": " disagree",
  "7681": " differences",
  "7682": " destroying",
  "7683": " desserts",
  "7684": " designed",
  "7685": " despite",
  "7686": " desire",
  "7687": " deserve",
  "7688": " demands",
  "7689": " demanding",
  "7690": " delaying",
  "7691": " delayed",
  "7692": " device",
  "7693": " devastated",
  "7694": " defeat",
  "7695": " dangers",
  "7696": " dances",
  "7697": " daisies",
  "7698": " dunked",
  "7699": " drenching",
  "7700": " ditch",
  "7701": " dip",
  "7702": " detail",
  "7703": " denting",
  "7704": " dedication",
  "7705": " dates",
  "7706": " darlings",
  "7707": " damage",
  "7708": " curiosity",
  "7709": " cursed",
  "7710": " current",
  "7711": " cupcakes",
  "7712": " cuddles",
  "7713": " crunchiest",
  "7714": " crowds",
  "7715": " croaking",
  "7716": " creativity",
  "7717": " crept",
  "7718": " creepy",
  "7719": " creaking",
  "7720": " creak",
  "7721": " crashes",
  "7722": " crafted",
  "7723": " cracks",
  "7724": " cracked",
  "7725": " crouched",
  "7726": " crouch",
  "7727": " countryside",
  "7728": " counts",
  "7729": " coughing",
  "7730": " cotton",
  "7731": " cottage",
  "7732": " conservation",
  "7733": " consequences",
  "7734": " conquered",
  "7735": " confidently",
  "7736": " concerned",
  "7737": " competitive",
  "7738": " compared",
  "7739": " comforts",
  "7740": " comforting",
  "7741": " comfy",
  "7742": " combed",
  "7743": " community",
  "7744": " collars",
  "7745": " colder",
  "7746": " coordination",
  "7747": " coats",
  "7748": " coaster",
  "7749": " clowns",
  "7750": " cloudy",
  "7751": " closing",
  "7752": " closes",
  "7753": " climbers",
  "7754": " climber",
  "7755": " climax",
  "7756": " clicks",
  "7757": " cleaner",
  "7758": " clearing",
  "7759": " classmate",
  "7760": " clue",
  "7761": " clarinet",
  "7762": " childhood",
  "7763": " cheesy",
  "7764": " cheeks",
  "7765": " chatting",
  "7766": " charity",
  "7767": " chores",
  "7768": " chopped",
  "7769": " chop",
  "7770": " chin",
  "7771": " chief",
  "7772": " chats",
  "7773": " chasing",
  "7774": " characters",
  "7775": " centre",
  "7776": " center",
  "7777": " catcher",
  "7778": " cartwheels",
  "7779": " cares",
  "7780": " captivated",
  "7781": " candies",
  "7782": " campground",
  "7783": " cacti",
  "7784": " cautiously",
  "7785": " caution",
  "7786": " cultures",
  "7787": " cough",
  "7788": " correctly",
  "7789": " cores",
  "7790": " coop",
  "7791": " cm",
  "7792": " circled",
  "7793": " buzzed",
  "7794": " buys",
  "7795": " buying",
  "7796": " butts",
  "7797": " bushy",
  "7798": " business",
  "7799": " bursts",
  "7800": " burnt",
  "7801": " bumps",
  "7802": " bumping",
  "7803": " broom",
  "7804": " breathed",
  "7805": " bravery",
  "7806": " brand",
  "7807": " bruises",
  "7808": " bows",
  "7809": " bowed",
  "7810": " bouncy",
  "7811": " bouncing",
  "7812": " bothers",
  "7813": " bothered",
  "7814": " booked",
  "7815": " bobbed",
  "7816": " blueberry",
  "7817": " blows",
  "7818": " blooms",
  "7819": " blooming",
  "7820": " bleats",
  "7821": " blushed",
  "7822": " blinking",
  "7823": " blast",
  "7824": " blade",
  "7825": " bending",
  "7826": " belongings",
  "7827": " belts",
  "7828": " below",
  "7829": " beginning",
  "7830": " becomes",
  "7831": " beauty",
  "7832": " beat",
  "7833": " beans",
  "7834": " batteries",
  "7835": " baths",
  "7836": " basketball",
  "7837": " bars",
  "7838": " banner",
  "7839": " banged",
  "7840": " balanced",
  "7841": " badges",
  "7842": " badge",
  "7843": " backpack",
  "7844": " bakes",
  "7845": " bait",
  "7846": " backed",
  "7847": " bouquet",
  "7848": " bound",
  "7849": " bitten",
  "7850": " beneath",
  "7851": " bank",
  "7852": " awoken",
  "7853": " awoke",
  "7854": " awesome",
  "7855": " awe",
  "7856": " awake",
  "7857": " avocados",
  "7858": " avoid",
  "7859": " attacking",
  "7860": " attempts",
  "7861": " attach",
  "7862": " assembled",
  "7863": " artwork",
  "7864": " arriving",
  "7865": " arrival",
  "7866": " arranged",
  "7867": " appreciated",
  "7868": " applause",
  "7869": " appears",
  "7870": " appropriately",
  "7871": " approached",
  "7872": " apologizes",
  "7873": " apart",
  "7874": " anybody",
  "7875": " anticipation",
  "7876": " antennas",
  "7877": " answers",
  "7878": " annoyed",
  "7879": " announced",
  "7880": " announce",
  "7881": " angrily",
  "7882": " ambition",
  "7883": " amusing",
  "7884": " amusement",
  "7885": " amused",
  "7886": " allows",
  "7887": " allow",
  "7888": " allergic",
  "7889": " alarm",
  "7890": " airplanes",
  "7891": " ages",
  "7892": " afterall",
  "7893": " aeroplanes",
  "7894": " admiring",
  "7895": " addition",
  "7896": " advantage",
  "7897": " acts",
  "7898": " achieved",
  "7899": " accidents",
  "7900": " accomplishment",
  "7901": " ache",
  "7902": " astronauts",
  "7903": " aroma",
  "7904": " aisle",
  "7905": " Whoever",
  "7906": " Whistling",
  "7907": " Wriggle",
  "7908": " Woof",
  "7909": " Wish",
  "7910": " Well",
  "7911": " Watch",
  "7912": " Wait",
  "7913": " Underneath",
  "7914": " Upon",
  "7915": " Up",
  "7916": " Turtle",
  "7917": " Turns",
  "7918": " Tuesdays",
  "7919": " Thanks",
  "7920": " Two",
  "7921": " Triangle",
  "7922": " Terrified",
  "7923": " Tell",
  "7924": " Taking",
  "7925": " Take",
  "7926": " Tails",
  "7927": " Tag",
  "7928": " Stop",
  "7929": " Steel",
  "7930": " Steak",
  "7931": " Startled",
  "7932": " Spiders",
  "7933": " Spicy",
  "7934": " Snake",
  "7935": " Smile",
  "7936": " Small",
  "7937": " Slowly",
  "7938": " Show",
  "7939": " Seeing",
  "7940": " Surprisingly",
  "7941": " Sure",
  "7942": " Sunday",
  "7943": " Splash",
  "7944": " Sleep",
  "7945": " Silence",
  "7946": " Seat",
  "7947": " School",
  "7948": " Run",
  "7949": " Rectangle",
  "7950": " Really",
  "7951": " Rabbit",
  "7952": " Pretending",
  "7953": " Praying",
  "7954": " Poor",
  "7955": " Pond",
  "7956": " Paul",
  "7957": " Party",
  "7958": " Paper",
  "7959": " Only",
  "7960": " Oval",
  "7961": " Other",
  "7962": " Off",
  "7963": " Nothing",
  "7964": " Never",
  "7965": " Nations",
  "7966": " Mummy",
  "7967": " Move",
  "7968": " Mouse",
  "7969": " Match",
  "7970": " Learn",
  "7971": " Lots",
  "7972": " Listen",
  "7973": " Linda",
  "7974": " Life",
  "7975": " Lastly",
  "7976": " Kindness",
  "7977": " Keep",
  "7978": " Helping",
  "7979": " Heads",
  "7980": " Horses",
  "7981": " Happy",
  "7982": " Goodnight",
  "7983": " God",
  "7984": " Grumpy",
  "7985": " Greedy",
  "7986": " Gently",
  "7987": " Frog",
  "7988": " France",
  "7989": " Forgiving",
  "7990": " Forgiveness",
  "7991": " Fun",
  "7992": " Fribbit",
  "7993": " Flutter",
  "7994": " Fleas",
  "7995": " Fish",
  "7996": " Fireworks",
  "7997": " Fighting",
  "7998": " Especially",
  "7999": " Eat",
  "8000": " Does",
  "8001": " Dinner",
  "8002": " Dog",
  "8003": " Deal",
  "8004": " Day",
  "8005": " Close",
  "8006": " Choose",
  "8007": " Chirp",
  "8008": " China",
  "8009": " Catch",
  "8010": " Canada",
  "8011": " Curiosity",
  "8012": " Cream",
  "8013": " Crazy",
  "8014": " Comets",
  "8015": " Cheese",
  "8016": " Being",
  "8017": " Behind",
  "8018": " Bugsy",
  "8019": " Both",
  "8020": " Batteries",
  "8021": " Around",
  "8022": " Anytime",
  "8023": " Another",
  "8024": " Amelia",
  "8025": " Although",
  "8026": " Air",
  "8027": " Accidents",
  "8028": " \"'",
  "8029": " omelette",
  "8030": " icing",
  "8031": " Yoga",
  "8032": " Yet",
  "8033": " Quacky",
  "8034": " Okay",
  "8035": " 9",
  "8036": " 8",
  "8037": " 10",
  "8038": "<|endoftext|>"
}